{
  "version": "1.0",
  "truncation": null,
  "padding": {
    "strategy": "BatchLongest",
    "direction": "Right",
    "pad_to_multiple_of": null,
    "pad_id": 3,
    "pad_type_id": 0,
    "pad_token": "[PAD]"
  },
  "added_tokens": [
    {
      "id": 0,
      "content": "[UNK]",
      "single_word": false,
      "lstrip": false,
      "rstrip": false,
      "normalized": false,
      "special": true
    },
    {
      "id": 1,
      "content": "[CLS]",
      "single_word": false,
      "lstrip": false,
      "rstrip": false,
      "normalized": false,
      "special": true
    },
    {
      "id": 2,
      "content": "[SEP]",
      "single_word": false,
      "lstrip": false,
      "rstrip": false,
      "normalized": false,
      "special": true
    },
    {
      "id": 3,
      "content": "[PAD]",
      "single_word": false,
      "lstrip": false,
      "rstrip": false,
      "normalized": false,
      "special": true
    },
    {
      "id": 4,
      "content": "[MASK]",
      "single_word": false,
      "lstrip": false,
      "rstrip": false,
      "normalized": false,
      "special": true
    }
  ],
  "normalizer": null,
  "pre_tokenizer": {
    "type": "Whitespace"
  },
  "post_processor": null,
  "decoder": null,
  "model": {
    "type": "BPE",
    "dropout": null,
    "unk_token": "[UNK]",
    "continuing_subword_prefix": null,
    "end_of_word_suffix": null,
    "fuse_unk": false,
    "byte_fallback": false,
    "vocab": {
      "[UNK]": 0,
      "[CLS]": 1,
      "[SEP]": 2,
      "[PAD]": 3,
      "[MASK]": 4,
      "a": 5,
      "b": 6,
      "c": 7,
      "d": 8,
      "e": 9,
      "f": 10,
      "g": 11,
      "h": 12,
      "i": 13,
      "j": 14,
      "k": 15,
      "l": 16,
      "m": 17,
      "n": 18,
      "o": 19,
      "p": 20,
      "q": 21,
      "r": 22,
      "s": 23,
      "t": 24,
      "u": 25,
      "v": 26,
      "w": 27,
      "x": 28,
      "y": 29,
      "z": 30,
      "in": 31,
      "er": 32,
      "on": 33,
      "ed": 34,
      "re": 35,
      "ti": 36,
      "an": 37,
      "le": 38,
      "al": 39,
      "en": 40,
      "ar": 41,
      "th": 42,
      "ing": 43,
      "st": 44,
      "or": 45,
      "ou": 46,
      "es": 47,
      "it": 48,
      "at": 49,
      "se": 50,
      "tion": 51,
      "is": 52,
      "ly": 53,
      "li": 54,
      "ac": 55,
      "ag": 56,
      "om": 57,
      "de": 58,
      "ch": 59,
      "ad": 60,
      "ro": 61,
      "lo": 62,
      "us": 63,
      "ic": 64,
      "ent": 65,
      "as": 66,
      "tic": 67,
      "ay": 68,
      "el": 69,
      "am": 70,
      "ri": 71,
      "con": 72,
      "ve": 73,
      "nt": 74,
      "si": 75,
      "po": 76,
      "pe": 77,
      "wi": 78,
      "no": 79,
      "ver": 80,
      "su": 81,
      "ke": 82,
      "ce": 83,
      "artic": 84,
      "ation": 85,
      "op": 86,
      "un": 87,
      "ck": 88,
      "ld": 89,
      "gh": 90,
      "age": 91,
      "ia": 92,
      "com": 93,
      "article": 94,
      "te": 95,
      "ki": 96,
      "ne": 97,
      "pro": 98,
      "and": 99,
      "ate": 100,
      "one": 101,
      "the": 102,
      "ab": 103,
      "go": 104,
      "ap": 105,
      "ter": 106,
      "vi": 107,
      "ma": 108,
      "ho": 109,
      "me": 110,
      "wiki": 111,
      "ge": 112,
      "ped": 113,
      "ol": 114,
      "ct": 115,
      "if": 116,
      "be": 117,
      "ers": 118,
      "ul": 119,
      "ut": 120,
      "you": 121,
      "im": 122,
      "edit": 123,
      "ir": 124,
      "mo": 125,
      "ur": 126,
      "ex": 127,
      "il": 128,
      "so": 129,
      "pedia": 130,
      "qu": 131,
      "ple": 132,
      "ould": 133,
      "ther": 134,
      "id": 135,
      "page": 136,
      "ght": 137,
      "wikipedia": 138,
      "hi": 139,
      "ment": 140,
      "ally": 141,
      "our": 142,
      "for": 143,
      "ant": 144,
      "pl": 145,
      "tr": 146,
      "ink": 147,
      "ase": 148,
      "tal": 149,
      "res": 150,
      "ig": 151,
      "wor": 152,
      "bo": 153,
      "wh": 154,
      "talk": 155,
      "ok": 156,
      "ind": 157,
      "we": 158,
      "see": 159,
      "thing": 160,
      "dis": 161,
      "like": 162,
      "ci": 163,
      "ll": 164,
      "cont": 165,
      "sh": 166,
      "cl": 167,
      "ack": 168,
      "act": 169,
      "man": 170,
      "der": 171,
      "would": 172,
      "ra": 173,
      "ist": 174,
      "now": 175,
      "per": 176,
      "uck": 177,
      "ity": 178,
      "ta": 179,
      "to": 180,
      "ted": 181,
      "ard": 182,
      "all": 183,
      "ces": 184,
      "gu": 185,
      "ank": 186,
      "he": 187,
      "fe": 188,
      "ite": 189,
      "add": 190,
      "um": 191,
      "ell": 192,
      "please": 193,
      "fuck": 194,
      "ome": 195,
      "use": 196,
      "fer": 197,
      "know": 198,
      "co": 199,
      "ous": 200,
      "able": 201,
      "ca": 202,
      "ts": 203,
      "od": 204,
      "dele": 205,
      "ish": 206,
      "por": 207,
      "ated": 208,
      "end": 209,
      "les": 210,
      "sour": 211,
      "ven": 212,
      "way": 213,
      "gr": 214,
      "je": 215,
      "ree": 216,
      "think": 217,
      "ong": 218,
      "up": 219,
      "some": 220,
      "tt": 221,
      "thank": 222,
      "pre": 223,
      "ame": 224,
      "par": 225,
      "ction": 226,
      "ans": 227,
      "ast": 228,
      "gi": 229,
      "ence": 230,
      "oun": 231,
      "sion": 232,
      "peop": 233,
      "form": 234,
      "ass": 235,
      "int": 236,
      "ine": 237,
      "people": 238,
      "any": 239,
      "do": 240,
      "read": 241,
      "blo": 242,
      "ff": 243,
      "also": 244,
      "say": 245,
      "ha": 246,
      "thou": 247,
      "ble": 248,
      "hel": 249,
      "di": 250,
      "this": 251,
      "min": 252,
      "may": 253,
      "ound": 254,
      "spe": 255,
      "est": 256,
      "ber": 257,
      "fa": 258,
      "sa": 259,
      "cus": 260,
      "wr": 261,
      "mar": 262,
      "right": 263,
      "fi": 264,
      "tive": 265,
      "lic": 266,
      "tions": 267,
      "new": 268,
      "ru": 269,
      "ye": 270,
      "mu": 271,
      "time": 272,
      "ry": 273,
      "ved": 274,
      "ms": 275,
      "ever": 276,
      "ion": 277,
      "ess": 278,
      "bl": 279,
      "are": 280,
      "sp": 281,
      "ages": 282,
      "need": 283,
      "block": 284,
      "ain": 285,
      "king": 286,
      "get": 287,
      "ory": 288,
      "ure": 289,
      "cor": 290,
      "ty": 291,
      "ace": 292,
      "ob": 293,
      "pr": 294,
      "fo": 295,
      "pers": 296,
      "want": 297,
      "vie": 298,
      "how": 299,
      "mi": 300,
      "cou": 301,
      "cre": 302,
      "ud": 303,
      "articles": 304,
      "inter": 305,
      "ism": 306,
      "user": 307,
      "ors": 308,
      "chan": 309,
      "ue": 310,
      "rib": 311,
      "look": 312,
      "ting": 313,
      "link": 314,
      "low": 315,
      "remo": 316,
      "ser": 317,
      "ful": 318,
      "ger": 319,
      "list": 320,
      "person": 321,
      "fir": 322,
      "even": 323,
      "not": 324,
      "ary": 325,
      "discus": 326,
      "help": 327,
      "cr": 328,
      "iz": 329,
      "name": 330,
      "port": 331,
      "des": 332,
      "come": 333,
      "rect": 334,
      "good": 335,
      "back": 336,
      "la": 337,
      "make": 338,
      "work": 339,
      "view": 340,
      "refer": 341,
      "wo": 342,
      "thanks": 343,
      "mon": 344,
      "well": 345,
      "ations": 346,
      "cho": 347,
      "ep": 348,
      "sub": 349,
      "pos": 350,
      "ars": 351,
      "ject": 352,
      "could": 353,
      "pu": 354,
      "app": 355,
      "fact": 356,
      "inform": 357,
      "day": 358,
      "ian": 359,
      "mp": 360,
      "count": 361,
      "sti": 362,
      "comment": 363,
      "ere": 364,
      "du": 365,
      "med": 366,
      "che": 367,
      "war": 368,
      "att": 369,
      "red": 370,
      "ick": 371,
      "stand": 372,
      "cur": 373,
      "ques": 374,
      "ide": 375,
      "section": 376,
      "pres": 377,
      "ason": 378,
      "mat": 379,
      "first": 380,
      "sen": 381,
      "information": 382,
      "men": 383,
      "my": 384,
      "call": 385,
      "gen": 386,
      "cle": 387,
      "au": 388,
      "andal": 389,
      "gn": 390,
      "bit": 391,
      "used": 392,
      "ance": 393,
      "put": 394,
      "bi": 395,
      "every": 396,
      "there": 397,
      "vandal": 398,
      "col": 399,
      "ak": 400,
      "sources": 401,
      "ial": 402,
      "contrib": 403,
      "less": 404,
      "enti": 405,
      "ving": 406,
      "try": 407,
      "cent": 408,
      "cri": 409,
      "wp": 410,
      "but": 411,
      "sup": 412,
      "rever": 413,
      "hist": 414,
      "that": 415,
      "many": 416,
      "jo": 417,
      "deletion": 418,
      "dif": 419,
      "find": 420,
      "what": 421,
      "arch": 422,
      "pri": 423,
      "reg": 424,
      "sin": 425,
      "ice": 426,
      "of": 427,
      "incl": 428,
      "itt": 429,
      "source": 430,
      "requ": 431,
      "pages": 432,
      "bul": 433,
      "ste": 434,
      "nig": 435,
      "image": 436,
      "point": 437,
      "na": 438,
      "reason": 439,
      "enc": 440,
      "mis": 441,
      "really": 442,
      "fin": 443,
      "word": 444,
      "much": 445,
      "sy": 446,
      "made": 447,
      "consi": 448,
      "cop": 449,
      "xt": 450,
      "ates": 451,
      "et": 452,
      "fr": 453,
      "star": 454,
      "cer": 455,
      "ical": 456,
      "ww": 457,
      "lie": 458,
      "vo": 459,
      "post": 460,
      "discussion": 461,
      "ually": 462,
      "editing": 463,
      "log": 464,
      "other": 465,
      "ves": 466,
      "under": 467,
      "clo": 468,
      "admin": 469,
      "ttp": 470,
      "ph": 471,
      "ies": 472,
      "http": 473,
      "ask": 474,
      "got": 475,
      "edits": 476,
      "pa": 477,
      "reat": 478,
      "sing": 479,
      "let": 480,
      "state": 481,
      "ust": 482,
      "ot": 483,
      "ating": 484,
      "cep": 485,
      "br": 486,
      "still": 487,
      "ual": 488,
      "off": 489,
      "aa": 490,
      "ning": 491,
      "scho": 492,
      "sure": 493,
      "comm": 494,
      "sor": 495,
      "gl": 496,
      "school": 497,
      "since": 498,
      "your": 499,
      "show": 500,
      "reli": 501,
      "stop": 502,
      "ip": 503,
      "going": 504,
      "tag": 505,
      "someone": 506,
      "tim": 507,
      "sign": 508,
      "zz": 509,
      "take": 510,
      "dy": 511,
      "deleted": 512,
      "top": 513,
      "cu": 514,
      "clear": 515,
      "str": 516,
      "aim": 517,
      "said": 518,
      "two": 519,
      "copy": 520,
      "consider": 521,
      "belie": 522,
      "free": 523,
      "ign": 524,
      "high": 525,
      "vid": 526,
      "ged": 527,
      "issu": 528,
      "something": 529,
      "though": 530,
      "place": 531,
      "mean": 532,
      "real": 533,
      "using": 534,
      "ced": 535,
      "claim": 536,
      "never": 537,
      "wel": 538,
      "ach": 539,
      "book": 540,
      "agree": 541,
      "ill": 542,
      "out": 543,
      "content": 544,
      "proble": 545,
      "bet": 546,
      "mus": 547,
      "poli": 548,
      "gay": 549,
      "fol": 550,
      "cess": 551,
      "who": 552,
      "feel": 553,
      "expl": 554,
      "val": 555,
      "happ": 556,
      "wn": 557,
      "bas": 558,
      "ific": 559,
      "site": 560,
      "long": 561,
      "ie": 562,
      "non": 563,
      "tem": 564,
      "main": 565,
      "differ": 566,
      "shit": 567,
      "blocked": 568,
      "tur": 569,
      "ban": 570,
      "aph": 571,
      "nigger": 572,
      "can": 573,
      "thout": 574,
      "without": 575,
      "haha": 576,
      "ft": 577,
      "history": 578,
      "mention": 579,
      "ah": 580,
      "part": 581,
      "interest": 582,
      "pon": 583,
      "web": 584,
      "keep": 585,
      "another": 586,
      "mil": 587,
      "lev": 588,
      "hu": 589,
      "note": 590,
      "might": 591,
      "ines": 592,
      "added": 593,
      "amer": 594,
      "text": 595,
      "org": 596,
      "wer": 597,
      "vol": 598,
      "ict": 599,
      "regard": 600,
      "af": 601,
      "contin": 602,
      "understand": 603,
      "question": 604,
      "tain": 605,
      "ave": 606,
      "hope": 607,
      "sty": 608,
      "search": 609,
      "umb": 610,
      "sus": 611,
      "follow": 612,
      "better": 613,
      "ges": 614,
      "line": 615,
      "cit": 616,
      "case": 617,
      "done": 618,
      "ences": 619,
      "ough": 620,
      "mem": 621,
      "ility": 622,
      "request": 623,
      "sug": 624,
      "ition": 625,
      "ys": 626,
      "anything": 627,
      "world": 628,
      "ily": 629,
      "gener": 630,
      "iter": 631,
      "orig": 632,
      "ren": 633,
      "ious": 634,
      "rel": 635,
      "editors": 636,
      "kes": 637,
      "oo": 638,
      "removed": 639,
      "ably": 640,
      "origin": 641,
      "ency": 642,
      "actually": 643,
      "correct": 644,
      "appe": 645,
      "ments": 646,
      "welcome": 647,
      "sex": 648,
      "howe": 649,
      "ned": 650,
      "tit": 651,
      "pect": 652,
      "however": 653,
      "spec": 654,
      "har": 655,
      "seems": 656,
      "box": 657,
      "check": 658,
      "led": 659,
      "vious": 660,
      "ular": 661,
      "subject": 662,
      "gest": 663,
      "ready": 664,
      "best": 665,
      "mess": 666,
      "things": 667,
      "believe": 668,
      "tical": 669,
      "lan": 670,
      "utc": 671,
      "found": 672,
      "ress": 673,
      "notic": 674,
      "attack": 675,
      "americ": 676,
      "ss": 677,
      "personal": 678,
      "includ": 679,
      "tri": 680,
      "ward": 681,
      "rent": 682,
      "far": 683,
      "ef": 684,
      "head": 685,
      "char": 686,
      "ties": 687,
      "wat": 688,
      "speed": 689,
      "nn": 690,
      "mer": 691,
      "appro": 692,
      "fair": 693,
      "play": 694,
      "nam": 695,
      "ref": 696,
      "change": 697,
      "ational": 698,
      "links": 699,
      "big": 700,
      "suck": 701,
      "style": 702,
      "vandalism": 703,
      "great": 704,
      "bar": 705,
      "respon": 706,
      "uu": 707,
      "ris": 708,
      "comp": 709,
      "test": 710,
      "thers": 711,
      "nothing": 712,
      "wrong": 713,
      "exam": 714,
      "ittle": 715,
      "copyright": 716,
      "why": 717,
      "ways": 718,
      "opin": 719,
      "don": 720,
      "fl": 721,
      "polic": 722,
      "pub": 723,
      "ps": 724,
      "little": 725,
      "present": 726,
      "cord": 727,
      "review": 728,
      "current": 729,
      "cour": 730,
      "policy": 731,
      "engl": 732,
      "yes": 733,
      "contribu": 734,
      "va": 735,
      "opinion": 736,
      "sum": 737,
      "fic": 738,
      "comments": 739,
      "already": 740,
      "must": 741,
      "last": 742,
      "ither": 743,
      "vis": 744,
      "tell": 745,
      "cept": 746,
      "they": 747,
      "care": 748,
      "give": 749,
      "problem": 750,
      "argu": 751,
      "pov": 752,
      "bro": 753,
      "sul": 754,
      "fun": 755,
      "jew": 756,
      "lot": 757,
      "anyone": 758,
      "public": 759,
      "old": 760,
      "stu": 761,
      "years": 762,
      "fucking": 763,
      "ni": 764,
      "explain": 765,
      "editor": 766,
      "car": 767,
      "ga": 768,
      "possi": 769,
      "example": 770,
      "nor": 771,
      "life": 772,
      "defin": 773,
      "ens": 774,
      "vent": 775,
      "project": 776,
      "ash": 777,
      "sm": 778,
      "bad": 779,
      "trying": 780,
      "irl": 781,
      "else": 782,
      "bu": 783,
      "exper": 784,
      "thought": 785,
      "encyclo": 786,
      "wa": 787,
      "conf": 788,
      "where": 789,
      "adding": 790,
      "questions": 791,
      "guide": 792,
      "ctive": 793,
      "times": 794,
      "lead": 795,
      "mit": 796,
      "sent": 797,
      "different": 798,
      "prob": 799,
      "cial": 800,
      "ild": 801,
      "reliable": 802,
      "land": 803,
      "fag": 804,
      "bitch": 805,
      "others": 806,
      "account": 807,
      "sit": 808,
      "comple": 809,
      "kill": 810,
      "by": 811,
      "fri": 812,
      "remove": 813,
      "vide": 814,
      "making": 815,
      "called": 816,
      "ten": 817,
      "bri": 818,
      "import": 819,
      "just": 820,
      "tting": 821,
      "cond": 822,
      "issue": 823,
      "lect": 824,
      "num": 825,
      "grou": 826,
      "exist": 827,
      "girl": 828,
      "rest": 829,
      "rather": 830,
      "partic": 831,
      "fam": 832,
      "commun": 833,
      "len": 834,
      "simp": 835,
      "says": 836,
      "cc": 837,
      "english": 838,
      "sorry": 839,
      "hip": 840,
      "ror": 841,
      "stru": 842,
      "tu": 843,
      "hate": 844,
      "yy": 845,
      "leg": 846,
      "prom": 847,
      "sur": 848,
      "body": 849,
      "with": 850,
      "cate": 851,
      "ear": 852,
      "matter": 853,
      "support": 854,
      "over": 855,
      "sel": 856,
      "suggest": 857,
      "ks": 858,
      "templ": 859,
      "media": 860,
      "als": 861,
      "second": 862,
      "sense": 863,
      "inde": 864,
      "ath": 865,
      "reference": 866,
      "anti": 867,
      "aps": 868,
      "posi": 869,
      "sci": 870,
      "ral": 871,
      "da": 872,
      "os": 873,
      "national": 874,
      "ize": 875,
      "langu": 876,
      "ude": 877,
      "speedy": 878,
      "probably": 879,
      "kind": 880,
      "black": 881,
      "ton": 882,
      "mor": 883,
      "law": 884,
      "istr": 885,
      "produ": 886,
      "side": 887,
      "write": 888,
      "ken": 889,
      "lied": 890,
      "load": 891,
      "wom": 892,
      "son": 893,
      "trans": 894,
      "oh": 895,
      "mind": 896,
      "ings": 897,
      "ator": 898,
      "references": 899,
      "ability": 900,
      "ult": 901,
      "leave": 902,
      "original": 903,
      "dumb": 904,
      "sed": 905,
      "musli": 906,
      "vil": 907,
      "ished": 908,
      "around": 909,
      "ster": 910,
      "ze": 911,
      "posed": 912,
      "bor": 913,
      "least": 914,
      "enough": 915,
      "mater": 916,
      "most": 917,
      "dr": 918,
      "ately": 919,
      "either": 920,
      "vers": 921,
      "lat": 922,
      "her": 923,
      "die": 924,
      "mary": 925,
      "bre": 926,
      "continue": 927,
      "etc": 928,
      "its": 929,
      "material": 930,
      "term": 931,
      "lines": 932,
      "certain": 933,
      "auth": 934,
      "row": 935,
      "info": 936,
      "chris": 937,
      "recent": 938,
      "graph": 939,
      "idi": 940,
      "god": 941,
      "simply": 942,
      "plac": 943,
      "den": 944,
      "consen": 945,
      "version": 946,
      "white": 947,
      "always": 948,
      "friend": 949,
      "created": 950,
      "contro": 951,
      "ese": 952,
      "date": 953,
      "categ": 954,
      "ging": 955,
      "amp": 956,
      "evid": 957,
      "research": 958,
      "yet": 959,
      "cal": 960,
      "ground": 961,
      "saying": 962,
      "wee": 963,
      "consensus": 964,
      "whe": 965,
      "relev": 966,
      "ics": 967,
      "lar": 968,
      "given": 969,
      "ians": 970,
      "specific": 971,
      "move": 972,
      "common": 973,
      "rac": 974,
      "itten": 975,
      "needs": 976,
      "exp": 977,
      "dec": 978,
      "hello": 979,
      "aw": 980,
      "ama": 981,
      "notable": 982,
      "maybe": 983,
      "ds": 984,
      "address": 985,
      "written": 986,
      "appropri": 987,
      "fil": 988,
      "inste": 989,
      "cover": 990,
      "seem": 991,
      "hand": 992,
      "irect": 993,
      "pop": 994,
      "lies": 995,
      "sive": 996,
      "delete": 997,
      "concer": 998,
      "here": 999,
      "complete": 1000,
      "uni": 1001,
      "pict": 1002,
      "lam": 1003,
      "self": 1004,
      "love": 1005,
      "fore": 1006,
      "getting": 1007,
      "ists": 1008,
      "important": 1009,
      "pose": 1010,
      "sc": 1011,
      "number": 1012,
      "allow": 1013,
      "true": 1014,
      "member": 1015,
      "impro": 1016,
      "watch": 1017,
      "obvious": 1018,
      "ive": 1019,
      "users": 1020,
      "title": 1021,
      "jor": 1022,
      "iting": 1023,
      "og": 1024,
      "logy": 1025,
      "criter": 1026,
      "dick": 1027,
      "makes": 1028,
      "message": 1029,
      "redirect": 1030,
      "ny": 1031,
      "language": 1032,
      "omin": 1033,
      "states": 1034,
      "cause": 1035,
      "images": 1036,
      "hard": 1037,
      "ang": 1038,
      "direct": 1039,
      "instead": 1040,
      "sol": 1041,
      "ased": 1042,
      "tra": 1043,
      "light": 1044,
      "reverted": 1045,
      "preci": 1046,
      "clearly": 1047,
      "notice": 1048,
      "appropriate": 1049,
      "fect": 1050,
      "pho": 1051,
      "evidence": 1052,
      "relevant": 1053,
      "color": 1054,
      "words": 1055,
      "stup": 1056,
      "encyclopedia": 1057,
      "ters": 1058,
      "left": 1059,
      "christi": 1060,
      "ied": 1061,
      "quite": 1062,
      "perh": 1063,
      "possible": 1064,
      "zzzz": 1065,
      "past": 1066,
      "perhaps": 1067,
      "net": 1068,
      "viol": 1069,
      "offic": 1070,
      "rape": 1071,
      "year": 1072,
      "group": 1073,
      "stupid": 1074,
      "sever": 1075,
      "tru": 1076,
      "invol": 1077,
      "template": 1078,
      "nal": 1079,
      "ner": 1080,
      "cap": 1081,
      "tw": 1082,
      "news": 1083,
      "whether": 1084,
      "contribut": 1085,
      "ight": 1086,
      "bully": 1087,
      "aaaa": 1088,
      "bel": 1089,
      "administr": 1090,
      "contributions": 1091,
      "when": 1092,
      "qual": 1093,
      "american": 1094,
      "usion": 1095,
      "ution": 1096,
      "cy": 1097,
      "crip": 1098,
      "based": 1099,
      "website": 1100,
      "idea": 1101,
      "ball": 1102,
      "happen": 1103,
      "ise": 1104,
      "var": 1105,
      "islam": 1106,
      "tail": 1107,
      "upload": 1108,
      "prote": 1109,
      "ited": 1110,
      "ones": 1111,
      "lear": 1112,
      "mail": 1113,
      "start": 1114,
      "ring": 1115,
      "bus": 1116,
      "more": 1117,
      "quo": 1118,
      "neut": 1119,
      "cies": 1120,
      "author": 1121,
      "pp": 1122,
      "known": 1123,
      "general": 1124,
      "gg": 1125,
      "sock": 1126,
      "lol": 1127,
      "dou": 1128,
      "ale": 1129,
      "hy": 1130,
      "course": 1131,
      "pen": 1132,
      "she": 1133,
      "open": 1134,
      "means": 1135,
      "ort": 1136,
      "child": 1137,
      "uk": 1138,
      "came": 1139,
      "publ": 1140,
      "air": 1141,
      "bal": 1142,
      "hey": 1143,
      "tre": 1144,
      "ital": 1145,
      "appear": 1146,
      "changes": 1147,
      "ures": 1148,
      "class": 1149,
      "fully": 1150,
      "fy": 1151,
      "major": 1152,
      "whole": 1153,
      "organ": 1154,
      "tho": 1155,
      "considered": 1156,
      "temp": 1157,
      "tics": 1158,
      "gion": 1159,
      "guidelines": 1160,
      "wish": 1161,
      "will": 1162,
      "revert": 1163,
      "aut": 1164,
      "terror": 1165,
      "several": 1166,
      "seen": 1167,
      "tro": 1168,
      "rus": 1169,
      "ith": 1170,
      "ents": 1171,
      "particular": 1172,
      "pur": 1173,
      "dam": 1174,
      "ized": 1175,
      "ness": 1176,
      "neutral": 1177,
      "bio": 1178,
      "poin": 1179,
      "histor": 1180,
      "criteria": 1181,
      "photo": 1182,
      "position": 1183,
      "serious": 1184,
      "kk": 1185,
      "listed": 1186,
      "human": 1187,
      "ically": 1188,
      "gover": 1189,
      "warning": 1190,
      "arent": 1191,
      "fort": 1192,
      "que": 1193,
      "rep": 1194,
      "ani": 1195,
      "accept": 1196,
      "proper": 1197,
      "hh": 1198,
      "answer": 1199,
      "tty": 1200,
      "agr": 1201,
      "ina": 1202,
      "verif": 1203,
      "mentioned": 1204,
      "following": 1205,
      "statement": 1206,
      "mal": 1207,
      "sch": 1208,
      "eu": 1209,
      "entire": 1210,
      "cli": 1211,
      "file": 1212,
      "set": 1213,
      "rules": 1214,
      "ee": 1215,
      "dont": 1216,
      "won": 1217,
      "ire": 1218,
      "ju": 1219,
      "fix": 1220,
      "order": 1221,
      "resul": 1222,
      "soci": 1223,
      "bb": 1224,
      "regarding": 1225,
      "topic": 1226,
      "days": 1227,
      "ature": 1228,
      "four": 1229,
      "reed": 1230,
      "acy": 1231,
      "related": 1232,
      "ries": 1233,
      "pup": 1234,
      "syste": 1235,
      "ised": 1236,
      "detail": 1237,
      "ended": 1238,
      "fal": 1239,
      "happy": 1240,
      "eas": 1241,
      "ron": 1242,
      "three": 1243,
      "issues": 1244,
      "country": 1245,
      "band": 1246,
      "sou": 1247,
      "facts": 1248,
      "whi": 1249,
      "everyone": 1250,
      "hind": 1251,
      "include": 1252,
      "az": 1253,
      "ii": 1254,
      "ago": 1255,
      "create": 1256,
      "art": 1257,
      "full": 1258,
      "lab": 1259,
      "mm": 1260,
      "run": 1261,
      "exact": 1262,
      "gree": 1263,
      "appreci": 1264,
      "emp": 1265,
      "power": 1266,
      "accord": 1267,
      "next": 1268,
      "bullied": 1269,
      "dist": 1270,
      "did": 1271,
      "mid": 1272,
      "faggot": 1273,
      "sho": 1274,
      "bur": 1275,
      "attemp": 1276,
      "def": 1277,
      "del": 1278,
      "charac": 1279,
      "mist": 1280,
      "ns": 1281,
      "action": 1282,
      "ute": 1283,
      "names": 1284,
      "ko": 1285,
      "event": 1286,
      "live": 1287,
      "away": 1288,
      "sid": 1289,
      "ention": 1290,
      "puppe": 1291,
      "guy": 1292,
      "due": 1293,
      "looking": 1294,
      "including": 1295,
      "hom": 1296,
      "suppor": 1297,
      "rain": 1298,
      "standard": 1299,
      "fat": 1300,
      "sist": 1301,
      "accur": 1302,
      "tis": 1303,
      "ration": 1304,
      "background": 1305,
      "necess": 1306,
      "tically": 1307,
      "today": 1308,
      "changed": 1309,
      "face": 1310,
      "sand": 1311,
      "cas": 1312,
      "vice": 1313,
      "started": 1314,
      "christian": 1315,
      "short": 1316,
      "category": 1317,
      "apo": 1318,
      "pend": 1319,
      "addition": 1320,
      "www": 1321,
      "sentence": 1322,
      "indic": 1323,
      "lion": 1324,
      "eng": 1325,
      "espe": 1326,
      "anal": 1327,
      "stay": 1328,
      "worth": 1329,
      "nomin": 1330,
      "pass": 1331,
      "simil": 1332,
      "cially": 1333,
      "sound": 1334,
      "record": 1335,
      "key": 1336,
      "gin": 1337,
      "placed": 1338,
      "community": 1339,
      "pretty": 1340,
      "ade": 1341,
      "later": 1342,
      "govern": 1343,
      "rup": 1344,
      "repor": 1345,
      "mul": 1346,
      "ump": 1347,
      "rele": 1348,
      "uuuu": 1349,
      "respect": 1350,
      "nice": 1351,
      "stud": 1352,
      "jud": 1353,
      "uation": 1354,
      "provide": 1355,
      "atur": 1356,
      "picture": 1357,
      "remember": 1358,
      "deal": 1359,
      "civil": 1360,
      "stuff": 1361,
      "anyway": 1362,
      "again": 1363,
      "wikiped": 1364,
      "vic": 1365,
      "women": 1366,
      "small": 1367,
      "ators": 1368,
      "gre": 1369,
      "writing": 1370,
      "accus": 1371,
      "cunt": 1372,
      "hal": 1373,
      "ories": 1374,
      "similar": 1375,
      "ele": 1376,
      "month": 1377,
      "yu": 1378,
      "beha": 1379,
      "notability": 1380,
      "included": 1381,
      "looks": 1382,
      "jok": 1383,
      "although": 1384,
      "fail": 1385,
      "ham": 1386,
      "mother": 1387,
      "eth": 1388,
      "according": 1389,
      "wanted": 1390,
      "jus": 1391,
      "ently": 1392,
      "intro": 1393,
      "official": 1394,
      "gram": 1395,
      "hold": 1396,
      "sourced": 1397,
      "tech": 1398,
      "wro": 1399,
      "ross": 1400,
      "joh": 1401,
      "ird": 1402,
      "stat": 1403,
      "email": 1404,
      "em": 1405,
      "paragr": 1406,
      "wonder": 1407,
      "critic": 1408,
      "mission": 1409,
      "desc": 1410,
      "game": 1411,
      "wrote": 1412,
      "paragraph": 1413,
      "especially": 1414,
      "mag": 1415,
      "books": 1416,
      "summary": 1417,
      "rad": 1418,
      "truth": 1419,
      "alter": 1420,
      "hahahaha": 1421,
      "hor": 1422,
      "taken": 1423,
      "single": 1424,
      "discuss": 1425,
      "faith": 1426,
      "ben": 1427,
      "guess": 1428,
      "music": 1429,
      "ames": 1430,
      "everything": 1431,
      "wise": 1432,
      "ctions": 1433,
      "provid": 1434,
      "liber": 1435,
      "previous": 1436,
      "tish": 1437,
      "removing": 1438,
      "inc": 1439,
      "talking": 1440,
      "ange": 1441,
      "assu": 1442,
      "pie": 1443,
      "claims": 1444,
      "repe": 1445,
      "ili": 1446,
      "interested": 1447,
      "currently": 1448,
      "pat": 1449,
      "ba": 1450,
      "improve": 1451,
      "ane": 1452,
      "edited": 1453,
      "party": 1454,
      "velo": 1455,
      "week": 1456,
      "deb": 1457,
      "process": 1458,
      "speak": 1459,
      "pg": 1460,
      "within": 1461,
      "imp": 1462,
      "prof": 1463,
      "ley": 1464,
      "ledge": 1465,
      "rom": 1466,
      "cock": 1467,
      "promo": 1468,
      "report": 1469,
      "cat": 1470,
      "sk": 1471,
      "mark": 1472,
      "gy": 1473,
      "government": 1474,
      "io": 1475,
      "rid": 1476,
      "clar": 1477,
      "unless": 1478,
      "fut": 1479,
      "appears": 1480,
      "hit": 1481,
      "city": 1482,
      "sim": 1483,
      "policies": 1484,
      "ng": 1485,
      "false": 1486,
      "working": 1487,
      "eld": 1488,
      "euro": 1489,
      "certainly": 1490,
      "pus": 1491,
      "ision": 1492,
      "sites": 1493,
      "political": 1494,
      "completely": 1495,
      "jokes": 1496,
      "respond": 1497,
      "involved": 1498,
      "ants": 1499,
      "idiot": 1500,
      "sto": 1501,
      "cra": 1502,
      "coming": 1503,
      "comes": 1504,
      "nnnn": 1505,
      "super": 1506,
      "bs": 1507,
      "protect": 1508,
      "system": 1509,
      "medi": 1510,
      "win": 1511,
      "van": 1512,
      "bum": 1513,
      "muslim": 1514,
      "likely": 1515,
      "death": 1516,
      "ony": 1517,
      "colle": 1518,
      "published": 1519,
      "develo": 1520,
      "attacks": 1521,
      "dra": 1522,
      "reading": 1523,
      "asked": 1524,
      "cide": 1525,
      "wards": 1526,
      "fig": 1527,
      "pot": 1528,
      "controver": 1529,
      "boy": 1530,
      "gust": 1531,
      "quote": 1532,
      "represent": 1533,
      "yyyy": 1534,
      "ogle": 1535,
      "behavi": 1536,
      "ling": 1537,
      "board": 1538,
      "dro": 1539,
      "hell": 1540,
      "ignor": 1541,
      "whate": 1542,
      "void": 1543,
      "threat": 1544,
      "gar": 1545,
      "future": 1546,
      "google": 1547,
      "ouse": 1548,
      "whatever": 1549,
      "argument": 1550,
      "identi": 1551,
      "bt": 1552,
      "dle": 1553,
      "learn": 1554,
      "have": 1555,
      "bers": 1556,
      "john": 1557,
      "press": 1558,
      "oper": 1559,
      "ization": 1560,
      "crap": 1561,
      "muslims": 1562,
      "obviously": 1563,
      "large": 1564,
      "vin": 1565,
      "typ": 1566,
      "mber": 1567,
      "signific": 1568,
      "descrip": 1569,
      "jun": 1570,
      "nigg": 1571,
      "admins": 1572,
      "sco": 1573,
      "fied": 1574,
      "uses": 1575,
      "jan": 1576,
      "enced": 1577,
      "exactly": 1578,
      "uc": 1579,
      "joke": 1580,
      "useful": 1581,
      "explan": 1582,
      "united": 1583,
      "ja": 1584,
      "isra": 1585,
      "contr": 1586,
      "constru": 1587,
      "mr": 1588,
      "stitu": 1589,
      "saw": 1590,
      "become": 1591,
      "story": 1592,
      "disagree": 1593,
      "german": 1594,
      "meaning": 1595,
      "took": 1596,
      "legal": 1597,
      "valid": 1598,
      "girls": 1599,
      "sexual": 1600,
      "entry": 1601,
      "hour": 1602,
      "therefore": 1603,
      "film": 1604,
      "job": 1605,
      "bility": 1606,
      "sw": 1607,
      "ann": 1608,
      "strong": 1609,
      "docu": 1610,
      "lict": 1611,
      "sts": 1612,
      "joy": 1613,
      "space": 1614,
      "avoid": 1615,
      "dom": 1616,
      "contribs": 1617,
      "ense": 1618,
      "response": 1619,
      "soon": 1620,
      "univers": 1621,
      "british": 1622,
      "scienti": 1623,
      "ret": 1624,
      "posted": 1625,
      "ots": 1626,
      "lack": 1627,
      "aware": 1628,
      "sandbox": 1629,
      "own": 1630,
      "reasons": 1631,
      "oooo": 1632,
      "lent": 1633,
      "ulation": 1634,
      "type": 1635,
      "close": 1636,
      "company": 1637,
      "family": 1638,
      "dan": 1639,
      "points": 1640,
      "taking": 1641,
      "needed": 1642,
      "almost": 1643,
      "cited": 1644,
      "dat": 1645,
      "then": 1646,
      "fine": 1647,
      "oma": 1648,
      "contact": 1649,
      "kr": 1650,
      "europe": 1651,
      "experi": 1652,
      "multi": 1653,
      "along": 1654,
      "views": 1655,
      "foot": 1656,
      "home": 1657,
      "reply": 1658,
      "ord": 1659,
      "dog": 1660,
      "noticed": 1661,
      "guys": 1662,
      "ins": 1663,
      "because": 1664,
      "spir": 1665,
      "wikiproject": 1666,
      "often": 1667,
      "inst": 1668,
      "introdu": 1669,
      "roy": 1670,
      "describ": 1671,
      "tiv": 1672,
      "conflict": 1673,
      "mom": 1674,
      "necessary": 1675,
      "social": 1676,
      "does": 1677,
      "ought": 1678,
      "rule": 1679,
      "tar": 1680,
      "compl": 1681,
      "five": 1682,
      "ler": 1683,
      "prin": 1684,
      "middle": 1685,
      "male": 1686,
      "pt": 1687,
      "ative": 1688,
      "song": 1689,
      "cogn": 1690,
      "ka": 1691,
      "ount": 1692,
      "plan": 1693,
      "dar": 1694,
      "fight": 1695,
      "ya": 1696,
      "after": 1697,
      "problems": 1698,
      "tried": 1699,
      "went": 1700,
      "bly": 1701,
      "regards": 1702,
      "knowledge": 1703,
      "und": 1704,
      "hole": 1705,
      "told": 1706,
      "prac": 1707,
      "russi": 1708,
      "ending": 1709,
      "disrup": 1710,
      "continu": 1711,
      "confir": 1712,
      "jpg": 1713,
      "mac": 1714,
      "level": 1715,
      "pute": 1716,
      "wikipediaorg": 1717,
      "terms": 1718,
      "vision": 1719,
      "appreciate": 1720,
      "character": 1721,
      "step": 1722,
      "his": 1723,
      "late": 1724,
      "definition": 1725,
      "sta": 1726,
      "fan": 1727,
      "hone": 1728,
      "logi": 1729,
      "tut": 1730,
      "ali": 1731,
      "nic": 1732,
      "separ": 1733,
      "urch": 1734,
      "team": 1735,
      "mad": 1736,
      "shows": 1737,
      "enjoy": 1738,
      "expect": 1739,
      "moder": 1740,
      "minor": 1741,
      "while": 1742,
      "accurate": 1743,
      "iness": 1744,
      "members": 1745,
      "actions": 1746,
      "yuyu": 1747,
      "dd": 1748,
      "signed": 1749,
      "pap": 1750,
      "interesting": 1751,
      "yeah": 1752,
      "toge": 1753,
      "hear": 1754,
      "pol": 1755,
      "works": 1756,
      "wwww": 1757,
      "alone": 1758,
      "cut": 1759,
      "science": 1760,
      "dispute": 1761,
      "indi": 1762,
      "tyty": 1763,
      "graphy": 1764,
      "via": 1765,
      "together": 1766,
      "unch": 1767,
      "cheers": 1768,
      "bot": 1769,
      "phi": 1770,
      "context": 1771,
      "vandalize": 1772,
      "resol": 1773,
      "administrator": 1774,
      "npov": 1775,
      "mur": 1776,
      "jews": 1777,
      "cult": 1778,
      "wil": 1779,
      "prop": 1780,
      "ons": 1781,
      "sort": 1782,
      "experim": 1783,
      "ats": 1784,
      "church": 1785,
      "cam": 1786,
      "otherwise": 1787,
      "stated": 1788,
      "religion": 1789,
      "status": 1790,
      "aged": 1791,
      "cite": 1792,
      "force": 1793,
      "actual": 1794,
      "thus": 1795,
      "vail": 1796,
      "ses": 1797,
      "mic": 1798,
      "align": 1799,
      "wal": 1800,
      "prefer": 1801,
      "tional": 1802,
      "calling": 1803,
      "recogn": 1804,
      "exter": 1805,
      "these": 1806,
      "poop": 1807,
      "apparent": 1808,
      "ered": 1809,
      "video": 1810,
      "area": 1811,
      "username": 1812,
      "penis": 1813,
      "remain": 1814,
      "recently": 1815,
      "fav": 1816,
      "enwikipediaorg": 1817,
      "zer": 1818,
      "turn": 1819,
      "ket": 1820,
      "none": 1821,
      "contain": 1822,
      "generally": 1823,
      "indivi": 1824,
      "dri": 1825,
      "equ": 1826,
      "deleting": 1827,
      "obje": 1828,
      "ify": 1829,
      "night": 1830,
      "million": 1831,
      "individu": 1832,
      "simple": 1833,
      "clean": 1834,
      "banned": 1835,
      "cir": 1836,
      "provided": 1837,
      "ont": 1838,
      "pi": 1839,
      "house": 1840,
      "explanation": 1841,
      "reverting": 1842,
      "indeed": 1843,
      "moved": 1844,
      "fel": 1845,
      "bull": 1846,
      "piece": 1847,
      "cul": 1848,
      "woman": 1849,
      "vel": 1850,
      "description": 1851,
      "citation": 1852,
      "zzzzzzzz": 1853,
      "sugges": 1854,
      "ker": 1855,
      "demo": 1856,
      "pic": 1857,
      "fac": 1858,
      "peri": 1859,
      "pret": 1860,
      "logical": 1861,
      "friends": 1862,
      "backgroundcolor": 1863,
      "unt": 1864,
      "field": 1865,
      "special": 1866,
      "inser": 1867,
      "theory": 1868,
      "sockpuppe": 1869,
      "india": 1870,
      "internet": 1871,
      "abl": 1872,
      "rights": 1873,
      "loc": 1874,
      "verifia": 1875,
      "extre": 1876,
      "bring": 1877,
      "allowed": 1878,
      "racist": 1879,
      "goes": 1880,
      "uploaded": 1881,
      "eli": 1882,
      "sucks": 1883,
      "liter": 1884,
      "table": 1885,
      "gra": 1886,
      "presid": 1887,
      "jour": 1888,
      "nonsense": 1889,
      "decide": 1890,
      "ived": 1891,
      "half": 1892,
      "niggers": 1893,
      "gets": 1894,
      "ub": 1895,
      "quick": 1896,
      "biased": 1897,
      "justi": 1898,
      "ow": 1899,
      "begin": 1900,
      "attention": 1901,
      "sla": 1902,
      "from": 1903,
      "third": 1904,
      "living": 1905,
      "experiment": 1906,
      "ada": 1907,
      "result": 1908,
      "dead": 1909,
      "definite": 1910,
      "accep": 1911,
      "happened": 1912,
      "hur": 1913,
      "absol": 1914,
      "university": 1915,
      "aking": 1916,
      "cha": 1917,
      "tags": 1918,
      "seriously": 1919,
      "document": 1920,
      "tice": 1921,
      "down": 1922,
      "tes": 1923,
      "build": 1924,
      "cell": 1925,
      "insul": 1926,
      "tom": 1927,
      "ream": 1928,
      "poor": 1929,
      "ident": 1930,
      "avail": 1931,
      "flu": 1932,
      "fric": 1933,
      "fur": 1934,
      "naz": 1935,
      "bias": 1936,
      "click": 1937,
      "jewish": 1938,
      "han": 1939,
      "limit": 1940,
      "external": 1941,
      "spell": 1942,
      "ison": 1943,
      "cro": 1944,
      "eg": 1945,
      "vote": 1946,
      "arab": 1947,
      "heard": 1948,
      "tor": 1949,
      "conne": 1950,
      "ric": 1951,
      "rece": 1952,
      "longer": 1953,
      "belong": 1954,
      "near": 1955,
      "south": 1956,
      "period": 1957,
      "inv": 1958,
      "edi": 1959,
      "proof": 1960,
      "sal": 1961,
      "wid": 1962,
      "moron": 1963,
      "gon": 1964,
      "bab": 1965,
      "various": 1966,
      "dest": 1967,
      "children": 1968,
      "east": 1969,
      "san": 1970,
      "asser": 1971,
      "automa": 1972,
      "xx": 1973,
      "ini": 1974,
      "native": 1975,
      "citations": 1976,
      "particip": 1977,
      "ji": 1978,
      "ined": 1979,
      "wik": 1980,
      "america": 1981,
      "west": 1982,
      "born": 1983,
      "significant": 1984,
      "should": 1985,
      "hes": 1986,
      "ambig": 1987,
      "helpful": 1988,
      "aaaaaaaa": 1989,
      "ug": 1990,
      "acc": 1991,
      "associ": 1992,
      "supposed": 1993,
      "ming": 1994,
      "mos": 1995,
      "lying": 1996,
      "absolute": 1997,
      "independ": 1998,
      "lock": 1999,
      "series": 2000,
      "cing": 2001,
      "mas": 2002,
      "usually": 2003,
      "proposed": 2004,
      "mass": 2005,
      "album": 2006,
      "jap": 2007,
      "contributing": 2008,
      "los": 2009,
      "honest": 2010,
      "stan": 2011,
      "doubt": 2012,
      "ai": 2013,
      "spam": 2014,
      "ond": 2015,
      "format": 2016,
      "fc": 2017,
      "ffic": 2018,
      "fortun": 2019,
      "stra": 2020,
      "shar": 2021,
      "develop": 2022,
      "afric": 2023,
      "quality": 2024,
      "oc": 2025,
      "apologi": 2026,
      "width": 2027,
      "ology": 2028,
      "tv": 2029,
      "sections": 2030,
      "available": 2031,
      "itch": 2032,
      "hours": 2033,
      "milit": 2034,
      "establ": 2035,
      "troll": 2036,
      "bol": 2037,
      "ired": 2038,
      "online": 2039,
      "adver": 2040,
      "mone": 2041,
      "scre": 2042,
      "cen": 2043,
      "okay": 2044,
      "worked": 2045,
      "schol": 2046,
      "multiple": 2047,
      "ided": 2048,
      "break": 2049,
      "epis": 2050,
      "mkr": 2051,
      "culture": 2052,
      "creating": 2053,
      "republic": 2054,
      "among": 2055,
      "bir": 2056,
      "lid": 2057,
      "ury": 2058,
      "young": 2059,
      "japan": 2060,
      "suc": 2061,
      "pay": 2062,
      "sl": 2063,
      "program": 2064,
      "couple": 2065,
      "occ": 2066,
      "educ": 2067,
      "design": 2068,
      "months": 2069,
      "intel": 2070,
      "obama": 2071,
      "ities": 2072,
      "pig": 2073,
      "pun": 2074,
      "bast": 2075,
      "contest": 2076,
      "reach": 2077,
      "acceptable": 2078,
      "consist": 2079,
      "quot": 2080,
      "unblock": 2081,
      "was": 2082,
      "countries": 2083,
      "funny": 2084,
      "ake": 2085,
      "fish": 2086,
      "fs": 2087,
      "has": 2088,
      "data": 2089,
      "debate": 2090,
      "opinions": 2091,
      "automatically": 2092,
      "mere": 2093,
      "creation": 2094,
      "israel": 2095,
      "ids": 2096,
      "perfect": 2097,
      "deser": 2098,
      "had": 2099,
      "manual": 2100,
      "compar": 2101,
      "push": 2102,
      "eat": 2103,
      "teach": 2104,
      "personally": 2105,
      "fas": 2106,
      "stal": 2107,
      "ney": 2108,
      "control": 2109,
      "lig": 2110,
      "business": 2111,
      "freed": 2112,
      "orial": 2113,
      "gun": 2114,
      "jes": 2115,
      "mous": 2116,
      "concl": 2117,
      "jer": 2118,
      "active": 2119,
      "statements": 2120,
      "modern": 2121,
      "izing": 2122,
      "afd": 2123,
      "wide": 2124,
      "incorrect": 2125,
      "ore": 2126,
      "assume": 2127,
      "ier": 2128,
      "fall": 2129,
      "historical": 2130,
      "upon": 2131,
      "accepted": 2132,
      "march": 2133,
      "istic": 2134,
      "transl": 2135,
      "anda": 2136,
      "sil": 2137,
      "attempt": 2138,
      "phr": 2139,
      "blog": 2140,
      "effect": 2141,
      "july": 2142,
      "ene": 2143,
      "north": 2144,
      "alth": 2145,
      "rand": 2146,
      "apparently": 2147,
      "wait": 2148,
      "details": 2149,
      "cast": 2150,
      "early": 2151,
      "criticism": 2152,
      "separate": 2153,
      "thod": 2154,
      "rap": 2155,
      "asking": 2156,
      "tild": 2157,
      "primary": 2158,
      "stri": 2159,
      "tin": 2160,
      "situation": 2161,
      "popular": 2162,
      "exc": 2163,
      "money": 2164,
      "definitely": 2165,
      "acade": 2166,
      "lu": 2167,
      "vertical": 2168,
      "fucker": 2169,
      "thinking": 2170,
      "difference": 2171,
      "decision": 2172,
      "roll": 2173,
      "except": 2174,
      "ient": 2175,
      "mc": 2176,
      "subst": 2177,
      "purpose": 2178,
      "ose": 2179,
      "bru": 2180,
      "ential": 2181,
      "behavior": 2182,
      "mes": 2183,
      "understanding": 2184,
      "tildes": 2185,
      "shut": 2186,
      "lier": 2187,
      "indicate": 2188,
      "prove": 2189,
      "elect": 2190,
      "gious": 2191,
      "hen": 2192,
      "freedom": 2193,
      "bullshit": 2194,
      "solid": 2195,
      "infobox": 2196,
      "mee": 2197,
      "phys": 2198,
      "military": 2199,
      "sad": 2200,
      "extreme": 2201,
      "violation": 2202,
      "alal": 2203,
      "giving": 2204,
      "tab": 2205,
      "commit": 2206,
      "pill": 2207,
      "admit": 2208,
      "pression": 2209,
      "unfortun": 2210,
      "compu": 2211,
      "meant": 2212,
      "gave": 2213,
      "changing": 2214,
      "idiots": 2215,
      "harass": 2216,
      "tives": 2217,
      "abuse": 2218,
      "span": 2219,
      "ril": 2220,
      "behind": 2221,
      "tagged": 2222,
      "ising": 2223,
      "shi": 2224,
      "ites": 2225,
      "cool": 2226,
      "homo": 2227,
      "oct": 2228,
      "sometimes": 2229,
      "scientific": 2230,
      "verticalalign": 2231,
      "rock": 2232,
      "focus": 2233,
      "rench": 2234,
      "roman": 2235,
      "region": 2236,
      "directly": 2237,
      "linked": 2238,
      "tally": 2239,
      "stic": 2240,
      "dies": 2241,
      "treat": 2242,
      "yo": 2243,
      "rich": 2244,
      "outside": 2245,
      "huge": 2246,
      "jack": 2247,
      "disput": 2248,
      "august": 2249,
      "tube": 2250,
      "islamic": 2251,
      "ying": 2252,
      "looked": 2253,
      "offer": 2254,
      "batt": 2255,
      "bra": 2256,
      "sn": 2257,
      "rist": 2258,
      "repeated": 2259,
      "vs": 2260,
      "journal": 2261,
      "lost": 2262,
      "gan": 2263,
      "arti": 2264,
      "murder": 2265,
      "explaining": 2266,
      "expand": 2267,
      "propos": 2268,
      "fill": 2269,
      "wing": 2270,
      "sam": 2271,
      "blood": 2272,
      "president": 2273,
      "mine": 2274,
      "amount": 2275,
      "conven": 2276,
      "meet": 2277,
      "ax": 2278,
      "wt": 2279,
      "fuckfuck": 2280,
      "groups": 2281,
      "thes": 2282,
      "trad": 2283,
      "jim": 2284,
      "ified": 2285,
      "flag": 2286,
      "dem": 2287,
      "trump": 2288,
      "former": 2289,
      "controversi": 2290,
      "drop": 2291,
      "arbit": 2292,
      "spo": 2293,
      "earth": 2294,
      "numb": 2295,
      "diffic": 2296,
      "damn": 2297,
      "vio": 2298,
      "replace": 2299,
      "anim": 2300,
      "iran": 2301,
      "release": 2302,
      "dece": 2303,
      "tig": 2304,
      "ety": 2305,
      "wants": 2306,
      "rationale": 2307,
      "volution": 2308,
      "bon": 2309,
      "readers": 2310,
      "specifically": 2311,
      "uary": 2312,
      "sep": 2313,
      "greek": 2314,
      "termin": 2315,
      "dicks": 2316,
      "lest": 2317,
      "only": 2318,
      "bes": 2319,
      "itions": 2320,
      "zy": 2321,
      "fication": 2322,
      "gro": 2323,
      "messages": 2324,
      "av": 2325,
      "ague": 2326,
      "conom": 2327,
      "described": 2328,
      "majority": 2329,
      "cases": 2330,
      "featur": 2331,
      "barn": 2332,
      "produce": 2333,
      "reported": 2334,
      "glo": 2335,
      "wast": 2336,
      "stral": 2337,
      "ugh": 2338,
      "ides": 2339,
      "takes": 2340,
      "existing": 2341,
      "semi": 2342,
      "court": 2343,
      "administrators": 2344,
      "blocking": 2345,
      "fire": 2346,
      "gone": 2347,
      "pan": 2348,
      "shall": 2349,
      "credi": 2350,
      "tm": 2351,
      "sible": 2352,
      "numbers": 2353,
      "require": 2354,
      "lin": 2355,
      "wikipedian": 2356,
      "indian": 2357,
      "totally": 2358,
      "inclusion": 2359,
      "error": 2360,
      "sun": 2361,
      "international": 2362,
      "timate": 2363,
      "liam": 2364,
      "disruptive": 2365,
      "tiz": 2366,
      "rough": 2367,
      "econom": 2368,
      "propag": 2369,
      "very": 2370,
      "ttom": 2371,
      "absolutely": 2372,
      "contribute": 2373,
      "killed": 2374,
      "further": 2375,
      "knows": 2376,
      "ox": 2377,
      "constructive": 2378,
      "bey": 2379,
      "bother": 2380,
      "anony": 2381,
      "listen": 2382,
      "french": 2383,
      "town": 2384,
      "glad": 2385,
      "earlier": 2386,
      "finally": 2387,
      "possibly": 2388,
      "decided": 2389,
      "lea": 2390,
      "adverti": 2391,
      "demon": 2392,
      "fu": 2393,
      "vir": 2394,
      "austral": 2395,
      "nation": 2396,
      "police": 2397,
      "named": 2398,
      "particularly": 2399,
      "sequ": 2400,
      "trou": 2401,
      "uuuuuuuu": 2402,
      "putting": 2403,
      "race": 2404,
      "nobody": 2405,
      "population": 2406,
      "fd": 2407,
      "fit": 2408,
      "tool": 2409,
      "religious": 2410,
      "map": 2411,
      "ession": 2412,
      "organization": 2413,
      "youtube": 2414,
      "iction": 2415,
      "struct": 2416,
      "warring": 2417,
      "arguments": 2418,
      "pictures": 2419,
      "hhhh": 2420,
      "bud": 2421,
      "season": 2422,
      "parent": 2423,
      "reader": 2424,
      "yor": 2425,
      "hot": 2426,
      "water": 2427,
      "june": 2428,
      "total": 2429,
      "figure": 2430,
      "neither": 2431,
      "moment": 2432,
      "tend": 2433,
      "final": 2434,
      "wind": 2435,
      "tial": 2436,
      "ode": 2437,
      "lon": 2438,
      "blank": 2439,
      "tutorial": 2440,
      "upd": 2441,
      "gives": 2442,
      "nel": 2443,
      "weight": 2444,
      "sounds": 2445,
      "willing": 2446,
      "cand": 2447,
      "games": 2448,
      "kids": 2449,
      "err": 2450,
      "pillars": 2451,
      "itate": 2452,
      "january": 2453,
      "product": 2454,
      "ethnic": 2455,
      "discussed": 2456,
      "dear": 2457,
      "cribe": 2458,
      "towards": 2459,
      "frank": 2460,
      "ulous": 2461,
      "movie": 2462,
      "pal": 2463,
      "unsigned": 2464,
      "ran": 2465,
      "chance": 2466,
      "china": 2467,
      "female": 2468,
      "terrorism": 2469,
      "computer": 2470,
      "ering": 2471,
      "lists": 2472,
      "leading": 2473,
      "boob": 2474,
      "rs": 2475,
      "club": 2476,
      "bert": 2477,
      "front": 2478,
      "experience": 2479,
      "individual": 2480,
      "imag": 2481,
      "desp": 2482,
      "usa": 2483,
      "bc": 2484,
      "chal": 2485,
      "join": 2486,
      "covered": 2487,
      "mistake": 2488,
      "jesus": 2489,
      "influ": 2490,
      "thern": 2491,
      "service": 2492,
      "xic": 2493,
      "posting": 2494,
      "fool": 2495,
      "april": 2496,
      "reasonable": 2497,
      "entirely": 2498,
      "easy": 2499,
      "posts": 2500,
      "legi": 2501,
      "object": 2502,
      "referenced": 2503,
      "relations": 2504,
      "featured": 2505,
      "tac": 2506,
      "across": 2507,
      "irrelevant": 2508,
      "ship": 2509,
      "forward": 2510,
      "reflect": 2511,
      "cum": 2512,
      "tex": 2513,
      "complain": 2514,
      "aff": 2515,
      "century": 2516,
      "antly": 2517,
      "crimin": 2518,
      "examples": 2519,
      "wash": 2520,
      "father": 2521,
      "anonymous": 2522,
      "independent": 2523,
      "immedi": 2524,
      "ored": 2525,
      "concerns": 2526,
      "base": 2527,
      "encycloped": 2528,
      "luck": 2529,
      "ception": 2530,
      "removal": 2531,
      "unfortunately": 2532,
      "balls": 2533,
      "access": 2534,
      "yourself": 2535,
      "hat": 2536,
      "match": 2537,
      "asshole": 2538,
      "advice": 2539,
      "seeing": 2540,
      "about": 2541,
      "college": 2542,
      "ensive": 2543,
      "gth": 2544,
      "local": 2545,
      "micha": 2546,
      "nnnnnnnn": 2547,
      "gas": 2548,
      "psy": 2549,
      "pick": 2550,
      "soft": 2551,
      "missing": 2552,
      "wood": 2553,
      "rit": 2554,
      "stern": 2555,
      "ridic": 2556,
      "size": 2557,
      "capital": 2558,
      "profession": 2559,
      "ech": 2560,
      "grow": 2561,
      "benef": 2562,
      "igno": 2563,
      "prevent": 2564,
      "arily": 2565,
      "birth": 2566,
      "letter": 2567,
      "standards": 2568,
      "events": 2569,
      "bullies": 2570,
      "merge": 2571,
      "bill": 2572,
      "pread": 2573,
      "verifiable": 2574,
      "bat": 2575,
      "oud": 2576,
      "loy": 2577,
      "usive": 2578,
      "ford": 2579,
      "suspect": 2580,
      "bastard": 2581,
      "rela": 2582,
      "disambig": 2583,
      "cccc": 2584,
      "nove": 2585,
      "hypo": 2586,
      "wan": 2587,
      "summar": 2588,
      "met": 2589,
      "ffff": 2590,
      "priv": 2591,
      "battle": 2592,
      "retard": 2593,
      "ws": 2594,
      "inappropriate": 2595,
      "nature": 2596,
      "track": 2597,
      "protected": 2598,
      "merely": 2599,
      "fed": 2600,
      "wow": 2601,
      "highly": 2602,
      "david": 2603,
      "pointed": 2604,
      "nega": 2605,
      "controversial": 2606,
      "interpret": 2607,
      "famili": 2608,
      "despite": 2609,
      "yyyyyyyy": 2610,
      "favor": 2611,
      "eeee": 2612,
      "bin": 2613,
      "agreed": 2614,
      "grad": 2615,
      "recomm": 2616,
      "forum": 2617,
      "license": 2618,
      "const": 2619,
      "diff": 2620,
      "itter": 2621,
      "train": 2622,
      "tou": 2623,
      "ram": 2624,
      "chines": 2625,
      "publish": 2626,
      "barnstar": 2627,
      "occur": 2628,
      "ried": 2629,
      "december": 2630,
      "constitu": 2631,
      "mental": 2632,
      "inves": 2633,
      "tember": 2634,
      "enwikipediaorgwiki": 2635,
      "iss": 2636,
      "geor": 2637,
      "cant": 2638,
      "trust": 2639,
      "results": 2640,
      "types": 2641,
      "hon": 2642,
      "notes": 2643,
      "ober": 2644,
      "beat": 2645,
      "mostly": 2646,
      "btw": 2647,
      "christ": 2648,
      "chi": 2649,
      "easily": 2650,
      "september": 2651,
      "archive": 2652,
      "bullying": 2653,
      "chinese": 2654,
      "ery": 2655,
      "outh": 2656,
      "round": 2657,
      "kkkk": 2658,
      "properly": 2659,
      "fre": 2660,
      "grand": 2661,
      "died": 2662,
      "november": 2663,
      "accounts": 2664,
      "compe": 2665,
      "metal": 2666,
      "random": 2667,
      "familiar": 2668,
      "racism": 2669,
      "lad": 2670,
      "requesting": 2671,
      "femin": 2672,
      "green": 2673,
      "catho": 2674,
      "techn": 2675,
      "db": 2676,
      "success": 2677,
      "bold": 2678,
      "played": 2679,
      "nu": 2680,
      "nazi": 2681,
      "movement": 2682,
      "fg": 2683,
      "decl": 2684,
      "western": 2685,
      "basic": 2686,
      "label": 2687,
      "ana": 2688,
      "method": 2689,
      "paper": 2690,
      "central": 2691,
      "broad": 2692,
      "excl": 2693,
      "terrorist": 2694,
      "labor": 2695,
      "supported": 2696,
      "ping": 2697,
      "basically": 2698,
      "difficult": 2699,
      "russian": 2700,
      "investig": 2701,
      "kar": 2702,
      "cru": 2703,
      "peace": 2704,
      "blue": 2705,
      "campa": 2706,
      "ester": 2707,
      "concern": 2708,
      "catholic": 2709,
      "army": 2710,
      "suit": 2711,
      "kid": 2712,
      "templates": 2713,
      "places": 2714,
      "regist": 2715,
      "hitler": 2716,
      "sar": 2717,
      "ires": 2718,
      "conser": 2719,
      "importance": 2720,
      "wank": 2721,
      "ware": 2722,
      "noted": 2723,
      "categories": 2724,
      "substanti": 2725,
      "nar": 2726,
      "mistak": 2727,
      "intention": 2728,
      "value": 2729,
      "explained": 2730,
      "october": 2731,
      "straight": 2732,
      "study": 2733,
      "york": 2734,
      "tivity": 2735,
      "ahead": 2736,
      "obser": 2737,
      "ideas": 2738,
      "usage": 2739,
      "telling": 2740,
      "valu": 2741,
      "natur": 2742,
      "prior": 2743,
      "fixed": 2744,
      "negative": 2745,
      "wers": 2746,
      "ener": 2747,
      "ati": 2748,
      "hop": 2749,
      "rate": 2750,
      "edon": 2751,
      "episode": 2752,
      "stream": 2753,
      "propaganda": 2754,
      "hum": 2755,
      "somebody": 2756,
      "tests": 2757,
      "room": 2758,
      "bottom": 2759,
      "center": 2760,
      "ridiculous": 2761,
      "rant": 2762,
      "thats": 2763,
      "football": 2764,
      "confirm": 2765,
      "ded": 2766,
      "newsp": 2767,
      "grap": 2768,
      "introduction": 2769,
      "alle": 2770,
      "society": 2771,
      "ino": 2772,
      "argue": 2773,
      "gress": 2774,
      "rfc": 2775,
      "which": 2776,
      "discussions": 2777,
      "swe": 2778,
      "health": 2779,
      "bed": 2780,
      "shown": 2781,
      "cry": 2782,
      "code": 2783,
      "radical": 2784,
      "ignore": 2785,
      "vill": 2786,
      "incident": 2787,
      "knew": 2788,
      "aids": 2789,
      "feed": 2790,
      "newspap": 2791,
      "utes": 2792,
      "stub": 2793,
      "spl": 2794,
      "weeks": 2795,
      "beyond": 2796,
      "nomination": 2797,
      "concept": 2798,
      "compan": 2799,
      "wording": 2800,
      "asing": 2801,
      "igh": 2802,
      "padding": 2803,
      "model": 2804,
      "acting": 2805,
      "destroy": 2806,
      "permission": 2807,
      "corpor": 2808,
      "laugh": 2809,
      "campaign": 2810,
      "became": 2811,
      "alternative": 2812,
      "encyclopedic": 2813,
      "encour": 2814,
      "conclusion": 2815,
      "wit": 2816,
      "describe": 2817,
      "brain": 2818,
      "share": 2819,
      "released": 2820,
      "judge": 2821,
      "ands": 2822,
      "turned": 2823,
      "asion": 2824,
      "claimed": 2825,
      "brit": 2826,
      "princi": 2827,
      "frequ": 2828,
      "ky": 2829,
      "mir": 2830,
      "febru": 2831,
      "syn": 2832,
      "speaking": 2833,
      "yuyuyuyu": 2834,
      "james": 2835,
      "february": 2836,
      "viet": 2837,
      "road": 2838,
      "lence": 2839,
      "characters": 2840,
      "candid": 2841,
      "ked": 2842,
      "numer": 2843,
      "wondering": 2844,
      "anymore": 2845,
      "basis": 2846,
      "send": 2847,
      "hies": 2848,
      "finding": 2849,
      "positive": 2850,
      "tytytyty": 2851,
      "pati": 2852,
      "european": 2853,
      "ior": 2854,
      "protection": 2855,
      "gs": 2856,
      "incre": 2857,
      "suggestion": 2858,
      "award": 2859,
      "preced": 2860,
      "bag": 2861,
      "trouble": 2862,
      "unsourced": 2863,
      "happens": 2864,
      "island": 2865,
      "referring": 2866,
      "magaz": 2867,
      "lots": 2868,
      "condu": 2869,
      "required": 2870,
      "approach": 2871,
      "guideline": 2872,
      "challen": 2873,
      "brought": 2874,
      "quotes": 2875,
      "stree": 2876,
      "sell": 2877,
      "gur": 2878,
      "za": 2879,
      "border": 2880,
      "squ": 2881,
      "verse": 2882,
      "parts": 2883,
      "fast": 2884,
      "effort": 2885,
      "ev": 2886,
      "intellig": 2887,
      "discussing": 2888,
      "range": 2889,
      "licit": 2890,
      "concerned": 2891,
      "demonstr": 2892,
      "fran": 2893,
      "americans": 2894,
      "pective": 2895,
      "gres": 2896,
      "hol": 2897,
      "smi": 2898,
      "thous": 2899,
      "reality": 2900,
      "promise": 2901,
      "index": 2902,
      "lay": 2903,
      "surpr": 2904,
      "pred": 2905,
      "crapcrap": 2906,
      "insert": 2907,
      "contribution": 2908,
      "cted": 2909,
      "speech": 2910,
      "wikipedians": 2911,
      "phrase": 2912,
      "spread": 2913,
      "youfuck": 2914,
      "tax": 2915,
      "mate": 2916,
      "controversy": 2917,
      "wars": 2918,
      "twitter": 2919,
      "achi": 2920,
      "enter": 2921,
      "fle": 2922,
      "through": 2923,
      "playing": 2924,
      "suffic": 2925,
      "spelling": 2926,
      "graphies": 2927,
      "thread": 2928,
      "nonfree": 2929,
      "immediately": 2930,
      "kh": 2931,
      "citiz": 2932,
      "gold": 2933,
      "visit": 2934,
      "isis": 2935,
      "blp": 2936,
      "sick": 2937,
      "watching": 2938,
      "dig": 2939,
      "ases": 2940,
      "gene": 2941,
      "wtf": 2942,
      "kat": 2943,
      "wwwwwwww": 2944,
      "speedily": 2945,
      "practice": 2946,
      "ously": 2947,
      "satis": 2948,
      "hood": 2949,
      "starting": 2950,
      "sockpuppet": 2951,
      "bom": 2952,
      "choice": 2953,
      "turk": 2954,
      "ordin": 2955,
      "appreciated": 2956,
      "engine": 2957,
      "ceed": 2958,
      "tee": 2959,
      "previously": 2960,
      "communic": 2961,
      "til": 2962,
      "lick": 2963,
      "raid": 2964,
      "showing": 2965,
      "considering": 2966,
      "suggested": 2967,
      "christians": 2968,
      "kept": 2969,
      "sexist": 2970,
      "somewhere": 2971,
      "ado": 2972,
      "normal": 2973,
      "losop": 2974,
      "ira": 2975,
      "intended": 2976,
      "requested": 2977,
      "amaz": 2978,
      "established": 2979,
      "oppos": 2980,
      "eye": 2981,
      "wall": 2982,
      "apply": 2983,
      "limited": 2984,
      "lives": 2985,
      "mexic": 2986,
      "presented": 2987,
      "african": 2988,
      "sold": 2989,
      "office": 2990,
      "whose": 2991,
      "evil": 2992,
      "aming": 2993,
      "realize": 2994,
      "length": 2995,
      "warnings": 2996,
      "dio": 2997,
      "exists": 2998,
      "submit": 2999,
      "meets": 3000,
      "plus": 3001,
      "attrib": 3002,
      "threaten": 3003,
      "philosop": 3004,
      "serb": 3005,
      "dude": 3006,
      "spanish": 3007,
      "adv": 3008,
      "six": 3009,
      "democr": 3010,
      "japanese": 3011,
      "update": 3012,
      "extremely": 3013,
      "ifor": 3014,
      "gue": 3015,
      "macedon": 3016,
      "global": 3017,
      "pure": 3018,
      "thetic": 3019,
      "bil": 3020,
      "hun": 3021,
      "mart": 3022,
      "ification": 3023,
      "beginning": 3024,
      "received": 3025,
      "park": 3026,
      "mix": 3027,
      "factual": 3028,
      "george": 3029,
      "thoughts": 3030,
      "hab": 3031,
      "files": 3032,
      "fairly": 3033,
      "forget": 3034,
      "leaving": 3035,
      "coun": 3036,
      "role": 3037,
      "hob": 3038,
      "thinks": 3039,
      "doct": 3040,
      "alex": 3041,
      "liberal": 3042,
      "brief": 3043,
      "disgust": 3044,
      "offensive": 3045,
      "hopefully": 3046,
      "contributors": 3047,
      "academic": 3048,
      "conserva": 3049,
      "bunch": 3050,
      "eral": 3051,
      "nominated": 3052,
      "stick": 3053,
      "secre": 3054,
      "tradition": 3055,
      "tivi": 3056,
      "counter": 3057,
      "hahahahahahahaha": 3058,
      "choose": 3059,
      "canada": 3060,
      "secondary": 3061,
      "topics": 3062,
      "requests": 3063,
      "biographies": 3064,
      "eyes": 3065,
      "commons": 3066,
      "tay": 3067,
      "ern": 3068,
      "aging": 3069,
      "inte": 3070,
      "wanker": 3071,
      "pul": 3072,
      "students": 3073,
      "proposal": 3074,
      "rfa": 3075,
      "moving": 3076,
      "advertising": 3077,
      "disambiguation": 3078,
      "michael": 3079,
      "thor": 3080,
      "paki": 3081,
      "paul": 3082,
      "citing": 3083,
      "accusations": 3084,
      "regular": 3085,
      "additional": 3086,
      "failed": 3087,
      "education": 3088,
      "assist": 3089,
      "cross": 3090,
      "worse": 3091,
      "save": 3092,
      "palest": 3093,
      "rr": 3094,
      "agend": 3095,
      "safe": 3096,
      "card": 3097,
      "mel": 3098,
      "claiming": 3099,
      "reviewed": 3100,
      "hair": 3101,
      "lolo": 3102,
      "regardless": 3103,
      "bark": 3104,
      "gain": 3105,
      "indust": 3106,
      "photos": 3107,
      "aspect": 3108,
      "kore": 3109,
      "blat": 3110,
      "phone": 3111,
      "deep": 3112,
      "geo": 3113,
      "voc": 3114,
      "legitimate": 3115,
      "schools": 3116,
      "william": 3117,
      "keeping": 3118,
      "eve": 3119,
      "peer": 3120,
      "marks": 3121,
      "germany": 3122,
      "stood": 3123,
      "energy": 3124,
      "itor": 3125,
      "shame": 3126,
      "checking": 3127,
      "authority": 3128,
      "repeatedly": 3129,
      "professional": 3130,
      "touch": 3131,
      "noti": 3132,
      "manner": 3133,
      "famous": 3134,
      "meas": 3135,
      "england": 3136,
      "brown": 3137,
      "flo": 3138,
      "mig": 3139,
      "inge": 3140,
      "amed": 3141,
      "zzzzzzzzzzzzzzzz": 3142,
      "revision": 3143,
      "sha": 3144,
      "sir": 3145,
      "irish": 3146,
      "maintain": 3147,
      "logic": 3148,
      "felt": 3149,
      "arbitration": 3150,
      "anci": 3151,
      "oppose": 3152,
      "worthy": 3153,
      "companies": 3154,
      "hill": 3155,
      "ik": 3156,
      "miss": 3157,
      "politics": 3158,
      "shot": 3159,
      "instance": 3160,
      "recommend": 3161,
      "sli": 3162,
      "throw": 3163,
      "those": 3164,
      "ports": 3165,
      "tone": 3166,
      "ught": 3167,
      "circum": 3168,
      "refers": 3169,
      "ae": 3170,
      "reput": 3171,
      "secur": 3172,
      "rum": 3173,
      "distr": 3174,
      "lets": 3175,
      "brid": 3176,
      "bell": 3177,
      "rection": 3178,
      "adam": 3179,
      "critical": 3180,
      "running": 3181,
      "occup": 3182,
      "kur": 3183,
      "languages": 3184,
      "behaviour": 3185,
      "insist": 3186,
      "union": 3187,
      "closed": 3188,
      "suggestions": 3189,
      "pressed": 3190,
      "biography": 3191,
      "silly": 3192,
      "ald": 3193,
      "stating": 3194,
      "confused": 3195,
      "ugly": 3196,
      "websites": 3197,
      "areas": 3198,
      "pain": 3199,
      "atory": 3200,
      "archi": 3201,
      "tempor": 3202,
      "titude": 3203,
      "libr": 3204,
      "commer": 3205,
      "anno": 3206,
      "orly": 3207,
      "weak": 3208,
      "minutes": 3209,
      "turkey": 3210,
      "ext": 3211,
      "resour": 3212,
      "ignorant": 3213,
      "gab": 3214,
      "core": 3215,
      "involve": 3216,
      "connection": 3217,
      "emo": 3218,
      "conspir": 3219,
      "checked": 3220,
      "baby": 3221,
      "ding": 3222,
      "france": 3223,
      "bank": 3224,
      "andor": 3225,
      "diction": 3226,
      "matic": 3227,
      "titles": 3228,
      "refrain": 3229,
      "uploading": 3230,
      "nick": 3231,
      "nip": 3232,
      "alleg": 3233,
      "raised": 3234,
      "pron": 3235,
      "food": 3236,
      "london": 3237,
      "once": 3238,
      "select": 3239,
      "truly": 3240,
      "cs": 3241,
      "scholars": 3242,
      "ancient": 3243,
      "institu": 3244,
      "heart": 3245,
      "crime": 3246,
      "php": 3247,
      "return": 3248,
      "persons": 3249,
      "butt": 3250,
      "jihad": 3251,
      "laws": 3252,
      "held": 3253,
      "censor": 3254,
      "fru": 3255,
      "county": 3256,
      "hesitate": 3257,
      "sian": 3258,
      "ured": 3259,
      "distin": 3260,
      "evolution": 3261,
      "els": 3262,
      "credit": 3263,
      "gal": 3264,
      "sat": 3265,
      "double": 3266,
      "remind": 3267,
      "ops": 3268,
      "tural": 3269,
      "contrad": 3270,
      "rank": 3271,
      "instru": 3272,
      "sem": 3273,
      "includes": 3274,
      "anywhere": 3275,
      "arb": 3276,
      "sions": 3277,
      "hence": 3278,
      "street": 3279,
      "master": 3280,
      "stars": 3281,
      "bitches": 3282,
      "development": 3283,
      "gor": 3284,
      "brother": 3285,
      "voice": 3286,
      "security": 3287,
      "tired": 3288,
      "applic": 3289,
      "rious": 3290,
      "rible": 3291,
      "civility": 3292,
      "aaaaaaaaaaaaaaaa": 3293,
      "strongly": 3294,
      "sett": 3295,
      "condi": 3296,
      "kingdom": 3297,
      "pppp": 3298,
      "dru": 3299,
      "calls": 3300,
      "followed": 3301,
      "hindu": 3302,
      "phili": 3303,
      "input": 3304,
      "mann": 3305,
      "writ": 3306,
      "magazine": 3307,
      "mouth": 3308,
      "function": 3309,
      "avi": 3310,
      "onto": 3311,
      "terrorists": 3312,
      "bn": 3313,
      "copyrighted": 3314,
      "fellow": 3315,
      "cere": 3316,
      "aring": 3317,
      "activi": 3318,
      "shared": 3319,
      "split": 3320,
      "andre": 3321,
      "referred": 3322,
      "updated": 3323,
      "augh": 3324,
      "besides": 3325,
      "stor": 3326,
      "collabor": 3327,
      "tract": 3328,
      "modif": 3329,
      "lower": 3330,
      "hund": 3331,
      "waste": 3332,
      "acknow": 3333,
      "tten": 3334,
      "building": 3335,
      "ulations": 3336,
      "bush": 3337,
      "poll": 3338,
      "utter": 3339,
      "private": 3340,
      "natural": 3341,
      "coverage": 3342,
      "accused": 3343,
      "scrip": 3344,
      "entially": 3345,
      "dark": 3346,
      "pas": 3347,
      "suming": 3348,
      "missed": 3349,
      "higher": 3350,
      "perfectly": 3351,
      "agenda": 3352,
      "dir": 3353,
      "ano": 3354,
      "techno": 3355,
      "numerous": 3356,
      "aint": 3357,
      "hundred": 3358,
      "anth": 3359,
      "reverts": 3360,
      "prick": 3361,
      "depend": 3362,
      "oooooooo": 3363,
      "tism": 3364,
      "champ": 3365,
      "boys": 3366,
      "additions": 3367,
      "fake": 3368,
      "defend": 3369,
      "scholar": 3370,
      "disgusting": 3371,
      "resolution": 3372,
      "foreign": 3373,
      "dates": 3374,
      "armen": 3375,
      "reland": 3376,
      "ica": 3377,
      "undo": 3378,
      "helpme": 3379,
      "redu": 3380,
      "fans": 3381,
      "athe": 3382,
      "fant": 3383,
      "mam": 3384,
      "territ": 3385,
      "max": 3386,
      "forts": 3387,
      "paid": 3388,
      "excuse": 3389,
      "assess": 3390,
      "parents": 3391,
      "mmmm": 3392,
      "ilt": 3393,
      "wales": 3394,
      "appeared": 3395,
      "hero": 3396,
      "supporting": 3397,
      "inno": 3398,
      "worst": 3399,
      "py": 3400,
      "loser": 3401,
      "prison": 3402,
      "likes": 3403,
      "depart": 3404,
      "somehow": 3405,
      "anybody": 3406,
      "fringe": 3407,
      "convers": 3408,
      "useless": 3409,
      "rul": 3410,
      "chat": 3411,
      "fighting": 3412,
      "retarded": 3413,
      "itar": 3414,
      "unk": 3415,
      "interview": 3416,
      "justice": 3417,
      "zed": 3418,
      "perform": 3419,
      "medical": 3420,
      "merged": 3421,
      "expert": 3422,
      "surely": 3423,
      "zen": 3424,
      "initi": 3425,
      "dict": 3426,
      "analys": 3427,
      "sym": 3428,
      "efforts": 3429,
      "sky": 3430,
      "teen": 3431,
      "wikimedia": 3432,
      "studies": 3433,
      "cocksuck": 3434,
      "consistent": 3435,
      "imagine": 3436,
      "misleading": 3437,
      "mach": 3438,
      "threats": 3439,
      "extra": 3440,
      "radio": 3441,
      "plain": 3442,
      "too": 3443,
      "helping": 3444,
      "translation": 3445,
      "structure": 3446,
      "nipple": 3447,
      "listing": 3448,
      "reports": 3449,
      "orship": 3450,
      "clarify": 3451,
      "cities": 3452,
      "assi": 3453,
      "vey": 3454,
      "somewhat": 3455,
      "throughout": 3456,
      "thesis": 3457,
      "congr": 3458,
      "sight": 3459,
      "easier": 3460,
      "cher": 3461,
      "proven": 3462,
      "vili": 3463,
      "rude": 3464,
      "naming": 3465,
      "bands": 3466,
      "harassment": 3467,
      "reached": 3468,
      "rick": 3469,
      "standing": 3470,
      "sle": 3471,
      "nty": 3472,
      "tol": 3473,
      "gots": 3474,
      "identify": 3475,
      "secret": 3476,
      "ireland": 3477,
      "adop": 3478,
      "principle": 3479,
      "sole": 3480,
      "minist": 3481,
      "him": 3482,
      "craft": 3483,
      "establish": 3484,
      "ances": 3485,
      "their": 3486,
      "blocks": 3487,
      "confirmed": 3488,
      "determin": 3489,
      "explicit": 3490,
      "associated": 3491,
      "hid": 3492,
      "empire": 3493,
      "provi": 3494,
      "smell": 3495,
      "conduct": 3496,
      "mentions": 3497,
      "afraid": 3498,
      "chap": 3499,
      "pointing": 3500,
      "wol": 3501,
      "isation": 3502,
      "elsewhere": 3503,
      "bye": 3504,
      "protest": 3505,
      "concerning": 3506,
      "clicking": 3507,
      "ush": 3508,
      "seemed": 3509,
      "honestly": 3510,
      "rog": 3511,
      "ends": 3512,
      "mainstream": 3513,
      "verify": 3514,
      "disputed": 3515,
      "abor": 3516,
      "illust": 3517,
      "waiting": 3518,
      "apologize": 3519,
      "tour": 3520,
      "suppose": 3521,
      "logged": 3522,
      "contains": 3523,
      "sufficient": 3524,
      "station": 3525,
      "existence": 3526,
      "interpretation": 3527,
      "northern": 3528,
      "deserve": 3529,
      "matters": 3530,
      "photograph": 3531,
      "domain": 3532,
      "smo": 3533,
      "replaced": 3534,
      "solution": 3535,
      "originally": 3536,
      "russia": 3537,
      "chick": 3538,
      "logo": 3539,
      "career": 3540,
      "royal": 3541,
      "literally": 3542,
      "pushing": 3543,
      "homosexual": 3544,
      "sides": 3545,
      "participate": 3546,
      "era": 3547,
      "reject": 3548,
      "isms": 3549,
      "bob": 3550,
      "commercial": 3551,
      "quickly": 3552,
      "gate": 3553,
      "odd": 3554,
      "uran": 3555,
      "objective": 3556,
      "errors": 3557,
      "worry": 3558,
      "requires": 3559,
      "necessarily": 3560,
      "identity": 3561,
      "thom": 3562,
      "furthermore": 3563,
      "ray": 3564,
      "insult": 3565,
      "usual": 3566,
      "comed": 3567,
      "tagging": 3568,
      "improving": 3569,
      "dickhead": 3570,
      "continued": 3571,
      "lord": 3572,
      "before": 3573,
      "obs": 3574,
      "records": 3575,
      "spirit": 3576,
      "theories": 3577,
      "subjects": 3578,
      "daily": 3579,
      "psycho": 3580,
      "thy": 3581,
      "ku": 3582,
      "promote": 3583,
      "vince": 3584,
      "fective": 3585,
      "contents": 3586,
      "nia": 3587,
      "channel": 3588,
      "stone": 3589,
      "twice": 3590,
      "uring": 3591,
      "careful": 3592,
      "hardly": 3593,
      "camp": 3594,
      "ades": 3595,
      "grant": 3596,
      "helps": 3597,
      "stitut": 3598,
      "integr": 3599,
      "analysis": 3600,
      "aver": 3601,
      "gri": 3602,
      "exten": 3603,
      "pathetic": 3604,
      "canad": 3605,
      "ffer": 3606,
      "ls": 3607,
      "tition": 3608,
      "cele": 3609,
      "harm": 3610,
      "student": 3611,
      "justify": 3612,
      "peter": 3613,
      "israeli": 3614,
      "mosca": 3615,
      "located": 3616,
      "vict": 3617,
      "both": 3618,
      "responsible": 3619,
      "newspaper": 3620,
      "conspiracy": 3621,
      "dia": 3622,
      "nes": 3623,
      "nearly": 3624,
      "sentences": 3625,
      "champion": 3626,
      "ander": 3627,
      "pled": 3628,
      "acts": 3629,
      "experienced": 3630,
      "alalalal": 3631,
      "fuckfuckfuckfuck": 3632,
      "relative": 3633,
      "fear": 3634,
      "polish": 3635,
      "announ": 3636,
      "credible": 3637,
      "domin": 3638,
      "ington": 3639,
      "opposed": 3640,
      "league": 3641,
      "ston": 3642,
      "restored": 3643,
      "latin": 3644,
      "skin": 3645,
      "australia": 3646,
      "iv": 3647,
      "ental": 3648,
      "coll": 3649,
      "draw": 3650,
      "forced": 3651,
      "tttt": 3652,
      "killing": 3653,
      "technical": 3654,
      "robert": 3655,
      "moon": 3656,
      "statis": 3657,
      "frequently": 3658,
      "civili": 3659,
      "understood": 3660,
      "dol": 3661,
      "ible": 3662,
      "atures": 3663,
      "cks": 3664,
      "zero": 3665,
      "asty": 3666,
      "location": 3667,
      "excel": 3668,
      "complex": 3669,
      "equal": 3670,
      "pse": 3671,
      "wife": 3672,
      "repeat": 3673,
      "prose": 3674,
      "addressed": 3675,
      "shortly": 3676,
      "software": 3677,
      "gry": 3678,
      "fra": 3679,
      "mentioning": 3680,
      "forces": 3681,
      "committee": 3682,
      "plot": 3683,
      "assuming": 3684,
      "guard": 3685,
      "writer": 3686,
      "latest": 3687,
      "scr": 3688,
      "wed": 3689,
      "vv": 3690,
      "ato": 3691,
      "fault": 3692,
      "califor": 3693,
      "bbbb": 3694,
      "gent": 3695,
      "ially": 3696,
      "appeal": 3697,
      "thousands": 3698,
      "kick": 3699,
      "copied": 3700,
      "keeps": 3701,
      "tun": 3702,
      "jay": 3703,
      "slight": 3704,
      "rative": 3705,
      "defined": 3706,
      "kin": 3707,
      "ancest": 3708,
      "latter": 3709,
      "drive": 3710,
      "dream": 3711,
      "nut": 3712,
      "sca": 3713,
      "vor": 3714,
      "quoted": 3715,
      "eventually": 3716,
      "association": 3717,
      "surprised": 3718,
      "aka": 3719,
      "experimenting": 3720,
      "arbcom": 3721,
      "cil": 3722,
      "cel": 3723,
      "ination": 3724,
      "influence": 3725,
      "som": 3726,
      "operation": 3727,
      "pakistan": 3728,
      "aries": 3729,
      "correctly": 3730,
      "opening": 3731,
      "providing": 3732,
      "figures": 3733,
      "library": 3734,
      "rot": 3735,
      "election": 3736,
      "quit": 3737,
      "forman": 3738,
      "fundam": 3739,
      "smart": 3740,
      "soviet": 3741,
      "express": 3742,
      "caused": 3743,
      "mongo": 3744,
      "affect": 3745,
      "minority": 3746,
      "cultural": 3747,
      "alban": 3748,
      "reviews": 3749,
      "tan": 3750,
      "forms": 3751,
      "reads": 3752,
      "everybody": 3753,
      "brand": 3754,
      "pussy": 3755,
      "verifiability": 3756,
      "criterion": 3757,
      "htm": 3758,
      "rewrite": 3759,
      "ssss": 3760,
      "busy": 3761,
      "relationship": 3762,
      "reve": 3763,
      "fox": 3764,
      "contributor": 3765,
      "ophi": 3766,
      "parties": 3767,
      "belongs": 3768,
      "widely": 3769,
      "nd": 3770,
      "sec": 3771,
      "negro": 3772,
      "delay": 3773,
      "scot": 3774,
      "quran": 3775,
      "noticeboard": 3776,
      "window": 3777,
      "gotten": 3778,
      "warned": 3779,
      "player": 3780,
      "confusing": 3781,
      "dealing": 3782,
      "conver": 3783,
      "incid": 3784,
      "cens": 3785,
      "rian": 3786,
      "verified": 3787,
      "potential": 3788,
      "steve": 3789,
      "drink": 3790,
      "feedback": 3791,
      "seven": 3792,
      "host": 3793,
      "division": 3794,
      "desk": 3795,
      "survi": 3796,
      "apart": 3797,
      "ership": 3798,
      "motherfucker": 3799,
      "tacos": 3800,
      "federal": 3801,
      "exe": 3802,
      "profess": 3803,
      "kno": 3804,
      "loss": 3805,
      "strange": 3806,
      "faggots": 3807,
      "network": 3808,
      "facebook": 3809,
      "cis": 3810,
      "attitude": 3811,
      "films": 3812,
      "vices": 3813,
      "mun": 3814,
      "poo": 3815,
      "spent": 3816,
      "politic": 3817,
      "norm": 3818,
      "oil": 3819,
      "talkpage": 3820,
      "specified": 3821,
      "entries": 3822,
      "ifies": 3823,
      "iron": 3824,
      "versions": 3825,
      "goal": 3826,
      "userpage": 3827,
      "foundation": 3828,
      "ski": 3829,
      "liver": 3830,
      "llll": 3831,
      "ders": 3832,
      "anas": 3833,
      "citizens": 3834,
      "ari": 3835,
      "impression": 3836,
      "stands": 3837,
      "provides": 3838,
      "motiv": 3839,
      "gggg": 3840,
      "grammar": 3841,
      "knowing": 3842,
      "dyk": 3843,
      "confusion": 3844,
      "being": 3845,
      "voted": 3846,
      "greater": 3847,
      "ues": 3848,
      "rare": 3849,
      "degree": 3850,
      "ophob": 3851,
      "flow": 3852,
      "till": 3853,
      "uted": 3854,
      "ida": 3855,
      "neutrality": 3856,
      "occasion": 3857,
      "california": 3858,
      "dictionary": 3859,
      "began": 3860,
      "belief": 3861,
      "tayyoung": 3862,
      "chron": 3863,
      "propose": 3864,
      "raise": 3865,
      "volunt": 3866,
      "hands": 3867,
      "odes": 3868,
      "perspective": 3869,
      "attempts": 3870,
      "restr": 3871,
      "blind": 3872,
      "songs": 3873,
      "individuals": 3874,
      "benefit": 3875,
      "agon": 3876,
      "weird": 3877,
      "morning": 3878,
      "bridge": 3879,
      "players": 3880,
      "authors": 3881,
      "mount": 3882,
      "minim": 3883,
      "reasoning": 3884,
      "uuuuuuuuuuuuuuuu": 3885,
      "summaries": 3886,
      "turkish": 3887,
      "nom": 3888,
      "plenty": 3889,
      "vandalizing": 3890,
      "render": 3891,
      "task": 3892,
      "classi": 3893,
      "effective": 3894,
      "explo": 3895,
      "precise": 3896,
      "grade": 3897,
      "preceding": 3898,
      "conservative": 3899,
      "illegal": 3900,
      "hide": 3901,
      "bible": 3902,
      "artist": 3903,
      "slo": 3904,
      "cratic": 3905,
      "dut": 3906,
      "nations": 3907,
      "mistakes": 3908,
      "anon": 3909,
      "print": 3910,
      "tam": 3911,
      "significance": 3912,
      "conversation": 3913,
      "dc": 3914,
      "nigga": 3915,
      "valent": 3916,
      "assert": 3917,
      "asp": 3918,
      "shop": 3919,
      "folks": 3920,
      "bomb": 3921,
      "them": 3922,
      "village": 3923,
      "sports": 3924,
      "vit": 3925,
      "licens": 3926,
      "kills": 3927,
      "christianity": 3928,
      "formance": 3929,
      "kam": 3930,
      "nas": 3931,
      "holy": 3932,
      "involvement": 3933,
      "excellent": 3934,
      "lt": 3935,
      "production": 3936,
      "africa": 3937,
      "lia": 3938,
      "declar": 3939,
      "impossible": 3940,
      "suggesting": 3941,
      "auto": 3942,
      "crazy": 3943,
      "fuckin": 3944,
      "feeling": 3945,
      "contrary": 3946,
      "yer": 3947,
      "kie": 3948,
      "detailed": 3949,
      "deliber": 3950,
      "spend": 3951,
      "queen": 3952,
      "industry": 3953,
      "mathe": 3954,
      "izations": 3955,
      "button": 3956,
      "humanity": 3957,
      "ignored": 3958,
      "alleged": 3959,
      "archives": 3960,
      "iiii": 3961,
      "virt": 3962,
      "drama": 3963,
      "wis": 3964,
      "alo": 3965,
      "asia": 3966,
      "leader": 3967,
      "mediation": 3968,
      "river": 3969,
      "urb": 3970,
      "boo": 3971,
      "hunt": 3972,
      "employ": 3973,
      "engage": 3974,
      "council": 3975,
      "blatant": 3976,
      "mies": 3977,
      "cia": 3978,
      "cust": 3979,
      "becoming": 3980,
      "spac": 3981,
      "department": 3982,
      "bound": 3983,
      "compre": 3984,
      "compromise": 3985,
      "joe": 3986,
      "broken": 3987,
      "lee": 3988,
      "demand": 3989,
      "trib": 3990,
      "votes": 3991,
      "agreement": 3992,
      "indexphp": 3993,
      "cheese": 3994,
      "built": 3995,
      "slow": 3996,
      "envi": 3997,
      "mao": 3998,
      "rail": 3999,
      "gender": 4000,
      "smith": 4001,
      "ises": 4002,
      "supre": 4003,
      "proced": 4004,
      "ffy": 4005,
      "systems": 4006,
      "vile": 4007,
      "linking": 4008,
      "passed": 4009,
      "practic": 4010,
      "literature": 4011,
      "zard": 4012,
      "shor": 4013,
      "heading": 4014,
      "hurt": 4015,
      "nasty": 4016,
      "nnnnnnnnnnnnnnnn": 4017,
      "censorship": 4018,
      "inside": 4019,
      "canadian": 4020,
      "persist": 4021,
      "promin": 4022,
      "emphas": 4023,
      "target": 4024,
      "croati": 4025,
      "ek": 4026,
      "arm": 4027,
      "locks": 4028,
      "species": 4029,
      "such": 4030,
      "forgot": 4031,
      "ix": 4032,
      "opport": 4033,
      "palestin": 4034,
      "hr": 4035,
      "uded": 4036,
      "iraq": 4037,
      "gam": 4038,
      "lived": 4039,
      "unity": 4040,
      "virgin": 4041,
      "applied": 4042,
      "curious": 4043,
      "friendly": 4044,
      "sincere": 4045,
      "resid": 4046,
      "violence": 4047,
      "gressive": 4048,
      "accident": 4049,
      "rass": 4050,
      "rial": 4051,
      "wild": 4052,
      "fantas": 4053,
      "communist": 4054,
      "forth": 4055,
      "carry": 4056,
      "vari": 4057,
      "learning": 4058,
      "bear": 4059,
      "danger": 4060,
      "philipp": 4061,
      "arguing": 4062,
      "largest": 4063,
      "ile": 4064,
      "typical": 4065,
      "liar": 4066,
      "lose": 4067,
      "telev": 4068,
      "altered": 4069,
      "continues": 4070,
      "favour": 4071,
      "anced": 4072,
      "geno": 4073,
      "attacking": 4074,
      "ological": 4075,
      "remains": 4076,
      "youtubecom": 4077,
      "egy": 4078,
      "hack": 4079,
      "suffer": 4080,
      "learned": 4081,
      "holder": 4082,
      "jones": 4083,
      "bow": 4084,
      "blame": 4085,
      "myth": 4086,
      "orrow": 4087,
      "beliefs": 4088,
      "poses": 4089,
      "reporting": 4090,
      "element": 4091,
      "jump": 4092,
      "symp": 4093,
      "wishes": 4094,
      "eastern": 4095,
      "massive": 4096,
      "criminal": 4097,
      "activity": 4098,
      "dun": 4099,
      "ager": 4100,
      "hil": 4101,
      "trade": 4102,
      "expected": 4103,
      "episodes": 4104,
      "intelligence": 4105,
      "lor": 4106,
      "huh": 4107,
      "jac": 4108,
      "invent": 4109,
      "berg": 4110,
      "supp": 4111,
      "phil": 4112,
      "micro": 4113,
      "ria": 4114,
      "manage": 4115,
      "disputes": 4116,
      "aside": 4117,
      "older": 4118,
      "burn": 4119,
      "tomorrow": 4120,
      "richard": 4121,
      "bid": 4122,
      "asian": 4123,
      "balance": 4124,
      "puppet": 4125,
      "yyyyyyyyyyyyyyyy": 4126,
      "environ": 4127,
      "elli": 4128,
      "unnecessary": 4129,
      "buy": 4130,
      "treated": 4131,
      "italian": 4132,
      "noes": 4133,
      "dddd": 4134,
      "gt": 4135,
      "math": 4136,
      "heads": 4137,
      "temporary": 4138,
      "allegations": 4139,
      "aus": 4140,
      "vast": 4141,
      "sele": 4142,
      "equi": 4143,
      "congrat": 4144,
      "df": 4145,
      "novel": 4146,
      "crack": 4147,
      "attacked": 4148,
      "responding": 4149,
      "advance": 4150,
      "average": 4151,
      "youtubecomwatch": 4152,
      "bay": 4153,
      "fly": 4154,
      "gang": 4155,
      "lou": 4156,
      "forever": 4157,
      "colon": 4158,
      "hahaha": 4159,
      "overall": 4160,
      "antisemi": 4161,
      "catch": 4162,
      "hall": 4163,
      "ias": 4164,
      "stories": 4165,
      "chic": 4166,
      "phen": 4167,
      "specify": 4168,
      "suggests": 4169,
      "violate": 4170,
      "vies": 4171,
      "warrant": 4172,
      "physical": 4173,
      "meat": 4174,
      "weap": 4175,
      "bananas": 4176,
      "corrected": 4177,
      "dirty": 4178,
      "fing": 4179,
      "rou": 4180,
      "yester": 4181,
      "arrest": 4182,
      "unblocked": 4183,
      "signature": 4184,
      "draft": 4185,
      "australian": 4186,
      "symbol": 4187,
      "smells": 4188,
      "bare": 4189,
      "jar": 4190,
      "stage": 4191,
      "paed": 4192,
      "ining": 4193,
      "screen": 4194,
      "resolved": 4195,
      "spot": 4196,
      "achieve": 4197,
      "mand": 4198,
      "sake": 4199,
      "marri": 4200,
      "medic": 4201,
      "bbc": 4202,
      "suitable": 4203,
      "sr": 4204,
      "hibit": 4205,
      "corrup": 4206,
      "carefully": 4207,
      "restore": 4208,
      "improvement": 4209,
      "compared": 4210,
      "yesterday": 4211,
      "dor": 4212,
      "erson": 4213,
      "ural": 4214,
      "kets": 4215,
      "abag": 4216,
      "publication": 4217,
      "victi": 4218,
      "assump": 4219,
      "complaint": 4220,
      "toler": 4221,
      "dup": 4222,
      "sche": 4223,
      "stopped": 4224,
      "graphic": 4225,
      "apologies": 4226,
      "encourage": 4227,
      "fred": 4228,
      "feature": 4229,
      "registered": 4230,
      "cup": 4231,
      "daugh": 4232,
      "unlike": 4233,
      "vise": 4234,
      "plement": 4235,
      "founded": 4236,
      "ambigu": 4237,
      "washington": 4238,
      "fro": 4239,
      "seek": 4240,
      "acted": 4241,
      "fucked": 4242,
      "cold": 4243,
      "intend": 4244,
      "projects": 4245,
      "cab": 4246,
      "powers": 4247,
      "dise": 4248,
      "biggest": 4249,
      "attempting": 4250,
      "planet": 4251,
      "editorial": 4252,
      "scru": 4253,
      "vag": 4254,
      "option": 4255,
      "teabag": 4256,
      "ula": 4257,
      "peoples": 4258,
      "mainly": 4259,
      "genocide": 4260,
      "pet": 4261,
      "becomes": 4262,
      "holo": 4263,
      "portal": 4264,
      "inten": 4265,
      "ips": 4266,
      "swed": 4267,
      "gov": 4268,
      "clue": 4269,
      "hypocr": 4270,
      "innocent": 4271,
      "agi": 4272,
      "hoo": 4273,
      "moral": 4274,
      "wwwyoutubecomwatch": 4275,
      "justified": 4276,
      "constantly": 4277,
      "amazing": 4278,
      "controll": 4279,
      "redirects": 4280,
      "investigation": 4281,
      "britain": 4282,
      "opposite": 4283,
      "congress": 4284,
      "charge": 4285,
      "elimin": 4286,
      "cellpadding": 4287,
      "lady": 4288,
      "remarks": 4289,
      "angry": 4290,
      "market": 4291,
      "expanded": 4292,
      "television": 4293,
      "freezer": 4294,
      "tc": 4295,
      "fucksex": 4296,
      "termine": 4297,
      "azi": 4298,
      "jam": 4299,
      "sourcing": 4300,
      "trolling": 4301,
      "hus": 4302,
      "hits": 4303,
      "thre": 4304,
      "portion": 4305,
      "improved": 4306,
      "responded": 4307,
      "census": 4308,
      "physics": 4309,
      "permit": 4310,
      "height": 4311,
      "yourselfgo": 4312,
      "explicitly": 4313,
      "dad": 4314,
      "edu": 4315,
      "determine": 4316,
      "beau": 4317,
      "persian": 4318,
      "genre": 4319,
      "hhhhhhhh": 4320,
      "unique": 4321,
      "paste": 4322,
      "avy": 4323,
      "unable": 4324,
      "mike": 4325,
      "relation": 4326,
      "annoying": 4327,
      "bg": 4328,
      "rating": 4329,
      "wrest": 4330,
      "perman": 4331,
      "applies": 4332,
      "colum": 4333,
      "eved": 4334,
      "mut": 4335,
      "tray": 4336,
      "resources": 4337,
      "reveal": 4338,
      "than": 4339,
      "ches": 4340,
      "pleas": 4341,
      "submission": 4342,
      "informed": 4343,
      "graphical": 4344,
      "yuyuyuyuyuyuyuyu": 4345,
      "whoever": 4346,
      "developed": 4347,
      "treatment": 4348,
      "ppl": 4349,
      "ske": 4350,
      "progress": 4351,
      "heavy": 4352,
      "bollocks": 4353,
      "letting": 4354,
      "sey": 4355,
      "licensed": 4356,
      "chie": 4357,
      "ference": 4358,
      "entit": 4359,
      "larger": 4360,
      "vy": 4361,
      "soever": 4362,
      "finan": 4363,
      "strict": 4364,
      "tools": 4365,
      "vation": 4366,
      "windexphp": 4367,
      "dee": 4368,
      "violations": 4369,
      "lingu": 4370,
      "tytytytytytytyty": 4371,
      "frustr": 4372,
      "hundreds": 4373,
      "jose": 4374,
      "bloody": 4375,
      "turns": 4376,
      "supports": 4377,
      "district": 4378,
      "chicken": 4379,
      "sea": 4380,
      "placing": 4381,
      "southern": 4382,
      "philosophy": 4383,
      "gall": 4384,
      "erever": 4385,
      "orph": 4386,
      "undue": 4387,
      "cleanup": 4388,
      "agre": 4389,
      "proud": 4390,
      "jimbo": 4391,
      "economic": 4392,
      "successful": 4393,
      "aspects": 4394,
      "slightly": 4395,
      "dh": 4396,
      "suic": 4397,
      "ville": 4398,
      "consequ": 4399,
      "mechan": 4400,
      "ices": 4401,
      "ium": 4402,
      "oting": 4403,
      "pis": 4404,
      "formal": 4405,
      "direction": 4406,
      "differences": 4407,
      "damage": 4408,
      "ensure": 4409,
      "omfg": 4410,
      "display": 4411,
      "finished": 4412,
      "objection": 4413,
      "normally": 4414,
      "custom": 4415,
      "unclear": 4416,
      "jeff": 4417,
      "stein": 4418,
      "frankly": 4419,
      "males": 4420,
      "paragraphs": 4421,
      "patter": 4422,
      "arms": 4423,
      "advis": 4424,
      "existed": 4425,
      "collection": 4426,
      "imo": 4427,
      "interpre": 4428,
      "xxxx": 4429,
      "constitution": 4430,
      "plant": 4431,
      "creator": 4432,
      "extensive": 4433,
      "nis": 4434,
      "inaccurate": 4435,
      "opposition": 4436,
      "intent": 4437,
      "whatsoever": 4438,
      "organizations": 4439,
      "accuracy": 4440,
      "aven": 4441,
      "revolution": 4442,
      "profile": 4443,
      "racial": 4444,
      "historians": 4445,
      "chester": 4446,
      "urs": 4447,
      "positions": 4448,
      "formatting": 4449,
      "awards": 4450,
      "kel": 4451,
      "lip": 4452,
      "rob": 4453,
      "travel": 4454,
      "gurdy": 4455,
      "celebr": 4456,
      "pace": 4457,
      "dep": 4458,
      "resh": 4459,
      "charles": 4460,
      "contributed": 4461,
      "appearance": 4462,
      "candidates": 4463,
      "edition": 4464,
      "cise": 4465,
      "prime": 4466,
      "happening": 4467,
      "sue": 4468,
      "formed": 4469,
      "republican": 4470,
      "crapcrapcrapcrap": 4471,
      "traditional": 4472,
      "technology": 4473,
      "otic": 4474,
      "plat": 4475,
      "pronoun": 4476,
      "bac": 4477,
      "ners": 4478,
      "historic": 4479,
      "recognized": 4480,
      "enwikipediaorgwindexphp": 4481,
      "scar": 4482,
      "spin": 4483,
      "pray": 4484,
      "philippines": 4485,
      "jective": 4486,
      "hoax": 4487,
      "porn": 4488,
      "voting": 4489,
      "whore": 4490,
      "polite": 4491,
      "deserves": 4492,
      "gfd": 4493,
      "compare": 4494,
      "produced": 4495,
      "categor": 4496,
      "iranian": 4497,
      "script": 4498,
      "stitutes": 4499,
      "proceed": 4500,
      "genu": 4501,
      "follows": 4502,
      "commonly": 4503,
      "didnt": 4504,
      "owner": 4505,
      "cccccccc": 4506,
      "doctor": 4507,
      "zo": 4508,
      "dare": 4509,
      "mative": 4510,
      "vention": 4511,
      "prepar": 4512,
      "izer": 4513,
      "scene": 4514,
      "victim": 4515,
      "promotional": 4516,
      "bish": 4517,
      "ull": 4518,
      "caust": 4519,
      "administ": 4520,
      "showed": 4521,
      "documented": 4522,
      "vest": 4523,
      "sud": 4524,
      "prophe": 4525,
      "trip": 4526,
      "anime": 4527,
      "accusing": 4528,
      "designed": 4529,
      "fraud": 4530,
      "victims": 4531,
      "greg": 4532,
      "las": 4533,
      "colour": 4534,
      "accusation": 4535,
      "assertion": 4536,
      "animal": 4537,
      "incorpor": 4538,
      "intellect": 4539,
      "stalking": 4540,
      "thomas": 4541,
      "genuine": 4542,
      "movies": 4543,
      "item": 4544,
      "serve": 4545,
      "universe": 4546,
      "impact": 4547,
      "aid": 4548,
      "gment": 4549,
      "hmm": 4550,
      "mill": 4551,
      "pack": 4552,
      "enforce": 4553,
      "balanced": 4554,
      "html": 4555,
      "tian": 4556,
      "tiful": 4557,
      "reser": 4558,
      "coi": 4559,
      "chart": 4560,
      "antic": 4561,
      "subsequ": 4562,
      "afgh": 4563,
      "measure": 4564,
      "qui": 4565,
      "encing": 4566,
      "eeeeeeee": 4567,
      "sleep": 4568,
      "pc": 4569,
      "ryan": 4570,
      "breed": 4571,
      "resolve": 4572,
      "millions": 4573,
      "interests": 4574,
      "boxes": 4575,
      "garian": 4576,
      "largely": 4577,
      "professor": 4578,
      "arri": 4579,
      "tran": 4580,
      "crimes": 4581,
      "violating": 4582,
      "recognize": 4583,
      "meeting": 4584,
      "gil": 4585,
      "itive": 4586,
      "jen": 4587,
      "manip": 4588,
      "married": 4589,
      "fiction": 4590,
      "breaking": 4591,
      "objections": 4592,
      "comparison": 4593,
      "animals": 4594,
      "honor": 4595,
      "compli": 4596,
      "productive": 4597,
      "promotion": 4598,
      "wwwwwwwwwwwwwwww": 4599,
      "aler": 4600,
      "shock": 4601,
      "accuse": 4602,
      "lmao": 4603,
      "cost": 4604,
      "activities": 4605,
      "tist": 4606,
      "tele": 4607,
      "theless": 4608,
      "implement": 4609,
      "istan": 4610,
      "defense": 4611,
      "scientists": 4612,
      "gfdl": 4613,
      "pes": 4614,
      "martin": 4615,
      "usertalk": 4616,
      "strate": 4617,
      "turning": 4618,
      "witness": 4619,
      "ez": 4620,
      "watt": 4621,
      "ater": 4622,
      "quar": 4623,
      "democratic": 4624,
      "duplic": 4625,
      "flight": 4626,
      "same": 4627,
      "reaction": 4628,
      "ingu": 4629,
      "bie": 4630,
      "command": 4631,
      "freely": 4632,
      "tells": 4633,
      "allows": 4634,
      "officially": 4635,
      "hang": 4636,
      "kan": 4637,
      "omit": 4638,
      "discover": 4639,
      "horse": 4640,
      "machine": 4641,
      "scruffy": 4642,
      "volunte": 4643,
      "jon": 4644,
      "unknown": 4645,
      "immig": 4646,
      "hion": 4647,
      "cares": 4648,
      "mistaken": 4649,
      "iers": 4650,
      "pac": 4651,
      "rational": 4652,
      "mast": 4653,
      "whereas": 4654,
      "documents": 4655,
      "marriage": 4656,
      "rated": 4657,
      "neigh": 4658,
      "obtain": 4659,
      "commentary": 4660,
      "ignorance": 4661,
      "sockpuppetry": 4662,
      "thorough": 4663,
      "recall": 4664,
      "walk": 4665,
      "twe": 4666,
      "arrog": 4667,
      "helped": 4668,
      "skills": 4669,
      "uh": 4670,
      "advoc": 4671,
      "sia": 4672,
      "guil": 4673,
      "arbitr": 4674,
      "products": 4675,
      "mamas": 4676,
      "hic": 4677,
      "poly": 4678,
      "kee": 4679,
      "insulting": 4680,
      "gie": 4681,
      "essentially": 4682,
      "purposes": 4683,
      "define": 4684,
      "initial": 4685,
      "holocaust": 4686,
      "ius": 4687,
      "oz": 4688,
      "ongoing": 4689,
      "youi": 4690,
      "trial": 4691,
      "atch": 4692,
      "manu": 4693,
      "services": 4694,
      "deny": 4695,
      "apology": 4696,
      "nazis": 4697,
      "dedic": 4698,
      "territory": 4699,
      "having": 4700,
      "qualify": 4701,
      "distrib": 4702,
      "dogs": 4703,
      "fasci": 4704,
      "challenge": 4705,
      "ancestry": 4706,
      "comprehen": 4707,
      "opportunity": 4708,
      "twi": 4709,
      "remark": 4710,
      "anarch": 4711,
      "trash": 4712,
      "rubb": 4713,
      "collect": 4714,
      "effects": 4715,
      "tie": 4716,
      "ami": 4717,
      "path": 4718,
      "identified": 4719,
      "sac": 4720,
      "feelings": 4721,
      "iety": 4722,
      "boner": 4723,
      "newcom": 4724,
      "dumbass": 4725,
      "equally": 4726,
      "dani": 4727,
      "aren": 4728,
      "switch": 4729,
      "punk": 4730,
      "hoping": 4731,
      "bles": 4732,
      "wizard": 4733,
      "uncivil": 4734,
      "entious": 4735,
      "letters": 4736,
      "staff": 4737,
      "loves": 4738,
      "sister": 4739,
      "vandals": 4740,
      "handle": 4741,
      "candidate": 4742,
      "instructions": 4743,
      "chose": 4744,
      "paint": 4745,
      "brow": 4746,
      "admitted": 4747,
      "agrees": 4748,
      "resist": 4749,
      "ung": 4750,
      "abe": 4751,
      "finish": 4752,
      "lands": 4753,
      "newsletter": 4754,
      "kkkkkkkk": 4755,
      "biz": 4756,
      "maps": 4757,
      "cook": 4758,
      "blah": 4759,
      "trivi": 4760,
      "prince": 4761,
      "inserted": 4762,
      "freak": 4763,
      "eh": 4764,
      "rewritten": 4765,
      "sect": 4766,
      "lyn": 4767,
      "comb": 4768,
      "absur": 4769,
      "buttho": 4770,
      "niggas": 4771,
      "writers": 4772,
      "unit": 4773,
      "door": 4774,
      "merging": 4775,
      "expan": 4776,
      "azer": 4777,
      "fashion": 4778,
      "daughter": 4779,
      "dim": 4780,
      "pm": 4781,
      "von": 4782,
      "mud": 4783,
      "lede": 4784,
      "replied": 4785,
      "scope": 4786,
      "assistance": 4787,
      "constant": 4788,
      "sudden": 4789,
      "crow": 4790,
      "esti": 4791,
      "caught": 4792,
      "spect": 4793,
      "temper": 4794,
      "grounds": 4795,
      "property": 4796,
      "clarification": 4797,
      "ignoring": 4798,
      "minister": 4799,
      "suicide": 4800,
      "gw": 4801,
      "titled": 4802,
      "dated": 4803,
      "kn": 4804,
      "anger": 4805,
      "abusive": 4806,
      "elled": 4807,
      "flat": 4808,
      "zion": 4809,
      "eland": 4810,
      "sie": 4811,
      "massac": 4812,
      "tiny": 4813,
      "exclusive": 4814,
      "substantial": 4815,
      "entitled": 4816,
      "pin": 4817,
      "rice": 4818,
      "stuck": 4819,
      "url": 4820,
      "trick": 4821,
      "statistics": 4822,
      "egg": 4823,
      "fif": 4824,
      "thro": 4825,
      "actor": 4826,
      "coupled": 4827,
      "mathema": 4828,
      "dv": 4829,
      "esome": 4830,
      "percent": 4831,
      "marily": 4832,
      "entertain": 4833,
      "fundamental": 4834,
      "chicago": 4835,
      "holes": 4836,
      "covers": 4837,
      "upset": 4838,
      "sales": 4839,
      "explains": 4840,
      "ich": 4841,
      "toward": 4842,
      "responsi": 4843,
      "publications": 4844,
      "lef": 4845,
      "blaa": 4846,
      "sensi": 4847,
      "ette": 4848,
      "bran": 4849,
      "electron": 4850,
      "korean": 4851,
      "financial": 4852,
      "absurd": 4853,
      "bh": 4854,
      "acity": 4855,
      "raj": 4856,
      "merit": 4857,
      "directed": 4858,
      "greece": 4859,
      "khan": 4860,
      "setting": 4861,
      "exception": 4862,
      "colored": 4863,
      "climate": 4864,
      "lg": 4865,
      "zel": 4866,
      "zil": 4867,
      "infor": 4868,
      "answers": 4869,
      "audi": 4870,
      "tony": 4871,
      "udo": 4872,
      "coordin": 4873,
      "tonight": 4874,
      "answered": 4875,
      "chapter": 4876,
      "ality": 4877,
      "moth": 4878,
      "items": 4879,
      "believed": 4880,
      "comfort": 4881,
      "prod": 4882,
      "wealth": 4883,
      "attempted": 4884,
      "determined": 4885,
      "gross": 4886,
      "mum": 4887,
      "sop": 4888,
      "ara": 4889,
      "itation": 4890,
      "udes": 4891,
      "feels": 4892,
      "herit": 4893,
      "mont": 4894,
      "mature": 4895,
      "closely": 4896,
      "continuing": 4897,
      "papers": 4898,
      "mixed": 4899,
      "yall": 4900,
      "grace": 4901,
      "mich": 4902,
      "materials": 4903,
      "bai": 4904,
      "bringing": 4905,
      "buttholes": 4906,
      "privile": 4907,
      "oldid": 4908,
      "possibility": 4909,
      "intelligent": 4910,
      "camer": 4911,
      "launch": 4912,
      "logist": 4913,
      "generation": 4914,
      "criticisms": 4915,
      "marked": 4916,
      "afghan": 4917,
      "fuk": 4918,
      "rants": 4919,
      "uro": 4920,
      "vague": 4921,
      "orthod": 4922,
      "hook": 4923,
      "pedophi": 4924,
      "doesnt": 4925,
      "locked": 4926,
      "din": 4927,
      "ingly": 4928,
      "defe": 4929,
      "iled": 4930,
      "kindly": 4931,
      "whenever": 4932,
      "represented": 4933,
      "gasm": 4934,
      "assessment": 4935,
      "bour": 4936,
      "unacceptable": 4937,
      "refs": 4938,
      "director": 4939,
      "hammad": 4940,
      "nov": 4941,
      "until": 4942,
      "anyways": 4943,
      "fired": 4944,
      "administration": 4945,
      "justification": 4946,
      "sincerely": 4947,
      "bonergasm": 4948,
      "secks": 4949,
      "unlikely": 4950,
      "filled": 4951,
      "guilty": 4952,
      "believes": 4953,
      "benefits": 4954,
      "reputation": 4955,
      "buttsecks": 4956,
      "ather": 4957,
      "bage": 4958,
      "discovered": 4959,
      "trivia": 4960,
      "hindus": 4961,
      "describing": 4962,
      "ugu": 4963,
      "terrible": 4964,
      "pair": 4965,
      "realized": 4966,
      "poorly": 4967,
      "dance": 4968,
      "aton": 4969,
      "bigger": 4970,
      "credibility": 4971,
      "restric": 4972,
      "beautiful": 4973,
      "fee": 4974,
      "features": 4975,
      "minute": 4976,
      "lacking": 4977,
      "gradu": 4978,
      "orthodox": 4979,
      "bass": 4980,
      "tree": 4981,
      "decent": 4982,
      "vandalized": 4983,
      "prise": 4984,
      "implies": 4985,
      "stances": 4986,
      "christmas": 4987,
      "armenian": 4988,
      "jel": 4989,
      "rab": 4990,
      "ona": 4991,
      "atest": 4992,
      "assa": 4993,
      "factor": 4994,
      "failure": 4995,
      "imply": 4996,
      "technically": 4997,
      "dic": 4998,
      "proto": 4999,
      "imper": 5000,
      "fies": 5001,
      "awesome": 5002,
      "ggt": 5003,
      "socialist": 5004,
      "equivalent": 5005,
      "cd": 5006,
      "anne": 5007,
      "consul": 5008,
      "exer": 5009,
      "offended": 5010,
      "teams": 5011,
      "muse": 5012,
      "cau": 5013,
      "moreover": 5014,
      "fixing": 5015,
      "recorded": 5016,
      "acknowled": 5017,
      "gger": 5018,
      "inspir": 5019,
      "ulated": 5020,
      "expression": 5021,
      "receive": 5022,
      "conventions": 5023,
      "rubbish": 5024,
      "causes": 5025,
      "arabic": 5026,
      "execu": 5027,
      "allah": 5028,
      "encyclopaed": 5029,
      "videos": 5030,
      "pping": 5031,
      "emplo": 5032,
      "training": 5033,
      "nit": 5034,
      "convic": 5035,
      "wear": 5036,
      "chosen": 5037,
      "hl": 5038,
      "snow": 5039,
      "prox": 5040,
      "cos": 5041,
      "brad": 5042,
      "speculation": 5043,
      "summer": 5044,
      "convention": 5045,
      "kj": 5046,
      "vac": 5047,
      "reci": 5048,
      "consideration": 5049,
      "nationality": 5050,
      "greatest": 5051,
      "prominent": 5052,
      "chief": 5053,
      "ib": 5054,
      "ogy": 5055,
      "valuable": 5056,
      "invited": 5057,
      "scale": 5058,
      "elliot": 5059,
      "fggt": 5060,
      "adds": 5061,
      "assumed": 5062,
      "satisfy": 5063,
      "distinction": 5064,
      "congratulations": 5065,
      "trivial": 5066,
      "ux": 5067,
      "vehic": 5068,
      "talks": 5069,
      "inton": 5070,
      "critics": 5071,
      "fails": 5072,
      "holding": 5073,
      "introduced": 5074,
      "punish": 5075,
      "drug": 5076,
      "cocksucker": 5077,
      "whites": 5078,
      "embar": 5079,
      "recei": 5080,
      "scholarly": 5081,
      "font": 5082,
      "jr": 5083,
      "tha": 5084,
      "destru": 5085,
      "secondly": 5086,
      "isnt": 5087,
      "disruption": 5088,
      "oy": 5089,
      "cham": 5090,
      "noobs": 5091,
      "unreliable": 5092,
      "apple": 5093,
      "coo": 5094,
      "lessly": 5095,
      "risk": 5096,
      "albums": 5097,
      "texas": 5098,
      "pseudo": 5099,
      "omen": 5100,
      "advise": 5101,
      "sher": 5102,
      "pressing": 5103,
      "refuse": 5104,
      "willy": 5105,
      "teacher": 5106,
      "texts": 5107,
      "billion": 5108,
      "wave": 5109,
      "lif": 5110,
      "liked": 5111,
      "memory": 5112,
      "historian": 5113,
      "horrible": 5114,
      "garbage": 5115,
      "fasc": 5116,
      "zzzzzzzzzzzzzzzzzzzzzzzzzzzzzzzz": 5117,
      "oom": 5118,
      "ume": 5119,
      "cancer": 5120,
      "nik": 5121,
      "spoken": 5122,
      "cti": 5123,
      "bled": 5124,
      "warri": 5125,
      "cuz": 5126,
      "reviewing": 5127,
      "dab": 5128,
      "were": 5129,
      "lian": 5130,
      "constitutes": 5131,
      "starts": 5132,
      "watchlist": 5133,
      "aircraft": 5134,
      "wikis": 5135,
      "offered": 5136,
      "expansion": 5137,
      "nate": 5138,
      "neo": 5139,
      "andy": 5140,
      "ulate": 5141,
      "hire": 5142,
      "feb": 5143,
      "ached": 5144,
      "regarded": 5145,
      "organisation": 5146,
      "patri": 5147,
      "compet": 5148,
      "ras": 5149,
      "ala": 5150,
      "opened": 5151,
      "distingu": 5152,
      "elements": 5153,
      "disease": 5154,
      "wattwatt": 5155,
      "aur": 5156,
      "gif": 5157,
      "nowhere": 5158,
      "bling": 5159,
      "chem": 5160,
      "gather": 5161,
      "bury": 5162,
      "stock": 5163,
      "scott": 5164,
      "fell": 5165,
      "tips": 5166,
      "sets": 5167,
      "addresses": 5168,
      "democracy": 5169,
      "vandalizer": 5170,
      "ponents": 5171,
      "donald": 5172,
      "experts": 5173,
      "engaged": 5174,
      "daniel": 5175,
      "orange": 5176,
      "coast": 5177,
      "figh": 5178,
      "affili": 5179,
      "medicine": 5180,
      "gary": 5181,
      "ata": 5182,
      "fare": 5183,
      "writes": 5184,
      "primarily": 5185,
      "frame": 5186,
      "highest": 5187,
      "greatly": 5188,
      "labour": 5189,
      "defending": 5190,
      "promoting": 5191,
      "blanking": 5192,
      "reputable": 5193,
      "pointless": 5194,
      "dynam": 5195,
      "directory": 5196,
      "threatening": 5197,
      "serbian": 5198,
      "bun": 5199,
      "gut": 5200,
      "lake": 5201,
      "godstars": 5202,
      "additionally": 5203,
      "jerk": 5204,
      "nan": 5205,
      "yel": 5206,
      "lio": 5207,
      "rise": 5208,
      "phy": 5209,
      "flor": 5210,
      "leads": 5211,
      "describes": 5212,
      "square": 5213,
      "extent": 5214,
      "unfair": 5215,
      "abusing": 5216,
      "partial": 5217,
      "artists": 5218,
      "elds": 5219,
      "perate": 5220,
      "desire": 5221,
      "violates": 5222,
      "shooting": 5223,
      "supporters": 5224,
      "mt": 5225,
      "alive": 5226,
      "poland": 5227,
      "leaders": 5228,
      "indicates": 5229,
      "methods": 5230,
      "conditions": 5231,
      "sab": 5232,
      "metro": 5233,
      "bib": 5234,
      "suspic": 5235,
      "harry": 5236,
      "fyi": 5237,
      "respected": 5238,
      "decline": 5239,
      "ita": 5240,
      "libel": 5241,
      "sikh": 5242,
      "mod": 5243,
      "heil": 5244,
      "notices": 5245,
      "transfer": 5246,
      "classic": 5247,
      "accompl": 5248,
      "ads": 5249,
      "iden": 5250,
      "zeal": 5251,
      "owned": 5252,
      "committed": 5253,
      "regional": 5254,
      "francis": 5255,
      "korea": 5256,
      "arian": 5257,
      "guid": 5258,
      "firm": 5259,
      "hearing": 5260,
      "jackson": 5261,
      "affair": 5262,
      "hidden": 5263,
      "palestinian": 5264,
      "dum": 5265,
      "ov": 5266,
      "rie": 5267,
      "closer": 5268,
      "reedelliot": 5269,
      "bastered": 5270,
      "aaaaaaaaaaaaaaaaaaaaaaaaaaaaaaaa": 5271,
      "atheist": 5272,
      "relatively": 5273,
      "arts": 5274,
      "urban": 5275,
      "iler": 5276,
      "ounder": 5277,
      "commented": 5278,
      "certi": 5279,
      "publisher": 5280,
      "comedy": 5281,
      "granted": 5282,
      "rections": 5283,
      "socalled": 5284,
      "plane": 5285,
      "acknowledge": 5286,
      "mountain": 5287,
      "ura": 5288,
      "restor": 5289,
      "undant": 5290,
      "habit": 5291,
      "informative": 5292,
      "kim": 5293,
      "premi": 5294,
      "kinda": 5295,
      "humor": 5296,
      "mexicans": 5297,
      "deliberately": 5298,
      "mode": 5299,
      "testing": 5300,
      "survey": 5301,
      "documentation": 5302,
      "bak": 5303,
      "tire": 5304,
      "archite": 5305,
      "cites": 5306,
      "connected": 5307,
      "macedonia": 5308,
      "tweet": 5309,
      "museum": 5310,
      "alph": 5311,
      "mates": 5312,
      "denial": 5313,
      "humans": 5314,
      "orphan": 5315,
      "ec": 5316,
      "gus": 5317,
      "elling": 5318,
      "quoting": 5319,
      "victor": 5320,
      "bure": 5321,
      "fia": 5322,
      "pressure": 5323,
      "pppppppp": 5324,
      "kins": 5325,
      "educated": 5326,
      "kers": 5327,
      "tia": 5328,
      "fart": 5329,
      "relevance": 5330,
      "puts": 5331,
      "archived": 5332,
      "ethnicity": 5333,
      "administrative": 5334,
      "architect": 5335,
      "poe": 5336,
      "unconstructive": 5337,
      "hosti": 5338,
      "heavi": 5339,
      "download": 5340,
      "bothered": 5341,
      "nat": 5342,
      "infl": 5343,
      "doing": 5344,
      "muhammad": 5345,
      "served": 5346,
      "simpli": 5347,
      "violated": 5348,
      "hyper": 5349,
      "homophob": 5350,
      "incidents": 5351,
      "vas": 5352,
      "ressing": 5353,
      "shad": 5354,
      "origins": 5355,
      "broke": 5356,
      "powerful": 5357,
      "koso": 5358,
      "pool": 5359,
      "coin": 5360,
      "monitor": 5361,
      "visible": 5362,
      "drag": 5363,
      "csd": 5364,
      "settle": 5365,
      "dutch": 5366,
      "fab": 5367,
      "rose": 5368,
      "ils": 5369,
      "respective": 5370,
      "wont": 5371,
      "newcomers": 5372,
      "stress": 5373,
      "appointed": 5374,
      "holi": 5375,
      "blacks": 5376,
      "brew": 5377,
      "capable": 5378,
      "burg": 5379,
      "circ": 5380,
      "boobs": 5381,
      "joseph": 5382,
      "jj": 5383,
      "concep": 5384,
      "georg": 5385,
      "discrimin": 5386,
      "warn": 5387,
      "everywhere": 5388,
      "fictional": 5389,
      "representation": 5390,
      "omg": 5391,
      "perce": 5392,
      "gray": 5393,
      "izes": 5394,
      "submitted": 5395,
      "arse": 5396,
      "devil": 5397,
      "ched": 5398,
      "convin": 5399,
      "mainpage": 5400,
      "insults": 5401,
      "wolf": 5402,
      "pir": 5403,
      "rein": 5404,
      "proves": 5405,
      "temple": 5406,
      "greeting": 5407,
      "grey": 5408,
      "construction": 5409,
      "advant": 5410,
      "stren": 5411,
      "orient": 5412,
      "essay": 5413,
      "istics": 5414,
      "loved": 5415,
      "ola": 5416,
      "internal": 5417,
      "bious": 5418,
      "problematic": 5419,
      "shoot": 5420,
      "lap": 5421,
      "esh": 5422,
      "moves": 5423,
      "haw": 5424,
      "lican": 5425,
      "poster": 5426,
      "nationalist": 5427,
      "allowing": 5428,
      "steps": 5429,
      "newspapers": 5430,
      "itarian": 5431,
      "column": 5432,
      "conform": 5433,
      "dish": 5434,
      "definitions": 5435,
      "casual": 5436,
      "techni": 5437,
      "matches": 5438,
      "cree": 5439,
      "tai": 5440,
      "pieces": 5441,
      "intellectual": 5442,
      "kash": 5443,
      "pod": 5444,
      "reasonably": 5445,
      "highlight": 5446,
      "niggerjew": 5447,
      "questionable": 5448,
      "advertise": 5449,
      "occupation": 5450,
      "hb": 5451,
      "pump": 5452,
      "inline": 5453,
      "irc": 5454,
      "spring": 5455,
      "lah": 5456,
      "hatred": 5457,
      "serbia": 5458,
      "dal": 5459,
      "oly": 5460,
      "sant": 5461,
      "regi": 5462,
      "referencing": 5463,
      "preser": 5464,
      "bits": 5465,
      "sockpuppets": 5466,
      "wasting": 5467,
      "controlled": 5468,
      "commission": 5469,
      "papa": 5470,
      "enemy": 5471,
      "nuclear": 5472,
      "yellow": 5473,
      "satur": 5474,
      "concent": 5475,
      "neil": 5476,
      "disco": 5477,
      "astro": 5478,
      "wanting": 5479,
      "viewpoint": 5480,
      "classical": 5481,
      "spi": 5482,
      "application": 5483,
      "philippineslong": 5484,
      "mb": 5485,
      "ost": 5486,
      "piss": 5487,
      "utions": 5488,
      "alot": 5489,
      "hosp": 5490,
      "price": 5491,
      "traitor": 5492,
      "rollback": 5493,
      "communication": 5494,
      "employe": 5495,
      "iq": 5496,
      "omy": 5497,
      "deletions": 5498,
      "partis": 5499,
      "marx": 5500,
      "preferred": 5501,
      "condition": 5502,
      "bless": 5503,
      "cision": 5504,
      "ua": 5505,
      "amend": 5506,
      "pope": 5507,
      "theore": 5508,
      "angel": 5509,
      "storm": 5510,
      "phenomen": 5511,
      "sse": 5512,
      "pole": 5513,
      "proved": 5514,
      "below": 5515,
      "blow": 5516,
      "spain": 5517,
      "dod": 5518,
      "lis": 5519,
      "chair": 5520,
      "taught": 5521,
      "joined": 5522,
      "smaller": 5523,
      "values": 5524,
      "increase": 5525,
      "dialect": 5526,
      "cket": 5527,
      "zi": 5528,
      "defam": 5529,
      "mony": 5530,
      "audio": 5531,
      "gays": 5532,
      "spacing": 5533,
      "louis": 5534,
      "pit": 5535,
      "sover": 5536,
      "aster": 5537,
      "bug": 5538,
      "windows": 5539,
      "gard": 5540,
      "scou": 5541,
      "tank": 5542,
      "ador": 5543,
      "comic": 5544,
      "abo": 5545,
      "abs": 5546,
      "moham": 5547,
      "excep": 5548,
      "clinton": 5549,
      "fuckers": 5550,
      "presence": 5551,
      "economy": 5552,
      "destroyed": 5553,
      "bureau": 5554,
      "tle": 5555,
      "iner": 5556,
      "alright": 5557,
      "stable": 5558,
      "parliam": 5559,
      "winning": 5560,
      "circumstances": 5561,
      "hay": 5562,
      "twee": 5563,
      "acom": 5564,
      "bosn": 5565,
      "whil": 5566,
      "cade": 5567,
      "redundant": 5568,
      "brothers": 5569,
      "rush": 5570,
      "iii": 5571,
      "horny": 5572,
      "strike": 5573,
      "requirements": 5574,
      "rev": 5575,
      "eline": 5576,
      "prohibit": 5577,
      "gian": 5578,
      "dubious": 5579,
      "calm": 5580,
      "minimum": 5581,
      "management": 5582,
      "dedicated": 5583,
      "suff": 5584,
      "una": 5585,
      "guitar": 5586,
      "arabs": 5587,
      "occurred": 5588,
      "conclusions": 5589,
      "satan": 5590,
      "abortion": 5591,
      "rejected": 5592,
      "cnn": 5593,
      "retain": 5594,
      "timately": 5595,
      "turks": 5596,
      "worldwide": 5597,
      "passage": 5598,
      "pattern": 5599,
      "tok": 5600,
      "hips": 5601,
      "talked": 5602,
      "ilities": 5603,
      "ownership": 5604,
      "judgement": 5605,
      "convinced": 5606,
      "whilst": 5607,
      "alan": 5608,
      "plagi": 5609,
      "server": 5610,
      "levels": 5611,
      "soldiers": 5612,
      "institute": 5613,
      "nur": 5614,
      "infer": 5615,
      "oul": 5616,
      "dot": 5617,
      "creative": 5618,
      "recognition": 5619,
      "regime": 5620,
      "prus": 5621,
      "monkey": 5622,
      "aked": 5623,
      "followers": 5624,
      "facil": 5625,
      "blogs": 5626,
      "fuckfuckfuckfuckfuckfuckfuckfuck": 5627,
      "dangerous": 5628,
      "fascist": 5629,
      "plagiar": 5630,
      "qa": 5631,
      "tco": 5632,
      "combin": 5633,
      "gee": 5634,
      "ulty": 5635,
      "wearing": 5636,
      "reviewer": 5637,
      "ukrain": 5638,
      "planning": 5639,
      "harassing": 5640,
      "mexico": 5641,
      "alalalalalalalal": 5642,
      "iny": 5643,
      "coward": 5644,
      "specifies": 5645,
      "minded": 5646,
      "variety": 5647,
      "principles": 5648,
      "swi": 5649,
      "expressed": 5650,
      "quer": 5651,
      "marke": 5652,
      "charges": 5653,
      "fying": 5654,
      "nominate": 5655,
      "picked": 5656,
      "heavily": 5657,
      "matt": 5658,
      "revis": 5659,
      "disney": 5660,
      "decisions": 5661,
      "genetic": 5662,
      "procedure": 5663,
      "rome": 5664,
      "rena": 5665,
      "badly": 5666,
      "passing": 5667,
      "germans": 5668,
      "notification": 5669,
      "declared": 5670,
      "vul": 5671,
      "logists": 5672,
      "calcul": 5673,
      "contradict": 5674,
      "apped": 5675,
      "whel": 5676,
      "cape": 5677,
      "lazy": 5678,
      "angle": 5679,
      "typing": 5680,
      "slavery": 5681,
      "quotation": 5682,
      "supreme": 5683,
      "founder": 5684,
      "therap": 5685,
      "corn": 5686,
      "subjective": 5687,
      "renamed": 5688,
      "farm": 5689,
      "responses": 5690,
      "qualified": 5691,
      "agram": 5692,
      "fourth": 5693,
      "represents": 5694,
      "lil": 5695,
      "province": 5696,
      "quest": 5697,
      "sau": 5698,
      "credited": 5699,
      "closing": 5700,
      "approved": 5701,
      "wake": 5702,
      "greeks": 5703,
      "threerever": 5704,
      "bian": 5705,
      "fbi": 5706,
      "fresh": 5707,
      "encies": 5708,
      "esp": 5709,
      "tric": 5710,
      "childish": 5711,
      "translated": 5712,
      "academ": 5713,
      "parliament": 5714,
      "sis": 5715,
      "zing": 5716,
      "aggressive": 5717,
      "vian": 5718,
      "presu": 5719,
      "volume": 5720,
      "contradic": 5721,
      "ilies": 5722,
      "tise": 5723,
      "apr": 5724,
      "hebrew": 5725,
      "string": 5726,
      "redirected": 5727,
      "footnote": 5728,
      "purely": 5729,
      "anthony": 5730,
      "scratch": 5731,
      "mothjer": 5732,
      "eds": 5733,
      "thur": 5734,
      "ading": 5735,
      "behalf": 5736,
      "seconds": 5737,
      "accurately": 5738,
      "consistency": 5739,
      "heritage": 5740,
      "sland": 5741,
      "tren": 5742,
      "aga": 5743,
      "discour": 5744,
      "paris": 5745,
      "crash": 5746,
      "columb": 5747,
      "steal": 5748,
      "speakers": 5749,
      "dictators": 5750,
      "croatian": 5751,
      "pink": 5752,
      "eric": 5753,
      "advan": 5754,
      "tea": 5755,
      "managed": 5756,
      "caption": 5757,
      "juda": 5758,
      "increasing": 5759,
      "bbbbbbbb": 5760,
      "attract": 5761,
      "unci": 5762,
      "shir": 5763,
      "paraph": 5764,
      "favorite": 5765,
      "environment": 5766,
      "rod": 5767,
      "females": 5768,
      "complic": 5769,
      "italy": 5770,
      "invite": 5771,
      "uel": 5772,
      "infin": 5773,
      "lean": 5774,
      "officer": 5775,
      "autom": 5776,
      "analy": 5777,
      "cocks": 5778,
      "contrast": 5779,
      "spamming": 5780,
      "dj": 5781,
      "sending": 5782,
      "armed": 5783,
      "youn": 5784,
      "contained": 5785,
      "guns": 5786,
      "growing": 5787,
      "precisely": 5788,
      "oompapa": 5789,
      "duck": 5790,
      "thin": 5791,
      "deliver": 5792,
      "tall": 5793,
      "fucks": 5794,
      "musical": 5795,
      "overview": 5796,
      "similarly": 5797,
      "protecting": 5798,
      "mainpagebg": 5799,
      "rates": 5800,
      "ults": 5801,
      "discre": 5802,
      "portray": 5803,
      "improvements": 5804,
      "vietnam": 5805,
      "islands": 5806,
      "dvd": 5807,
      "threerevert": 5808,
      "reven": 5809,
      "lywood": 5810,
      "performance": 5811,
      "lang": 5812,
      "kinds": 5813,
      "speaks": 5814,
      "explanations": 5815,
      "tables": 5816,
      "independence": 5817,
      "ordinary": 5818,
      "macedonian": 5819,
      "contemporary": 5820,
      "cla": 5821,
      "apping": 5822,
      "relating": 5823,
      "athy": 5824,
      "introduce": 5825,
      "printed": 5826,
      "straw": 5827,
      "falls": 5828,
      "violent": 5829,
      "challenged": 5830,
      "democrats": 5831,
      "tttttttt": 5832,
      "nie": 5833,
      "forums": 5834,
      "anthro": 5835,
      "afghanistan": 5836,
      "cars": 5837,
      "tures": 5838,
      "replaceable": 5839,
      "invented": 5840,
      "massacre": 5841,
      "responsibility": 5842,
      "hous": 5843,
      "adult": 5844,
      "prejud": 5845,
      "ponent": 5846,
      "approx": 5847,
      "sitting": 5848,
      "translate": 5849,
      "scen": 5850,
      "cyber": 5851,
      "orders": 5852,
      "raped": 5853,
      "henry": 5854,
      "rout": 5855,
      "been": 5856,
      "actors": 5857,
      "copyrights": 5858,
      "scum": 5859,
      "contested": 5860,
      "complaints": 5861,
      "declined": 5862,
      "ambiguous": 5863,
      "invest": 5864,
      "reck": 5865,
      "stain": 5866,
      "agan": 5867,
      "aya": 5868,
      "unrelated": 5869,
      "disci": 5870,
      "ideology": 5871,
      "offense": 5872,
      "families": 5873,
      "overwhel": 5874,
      "lawyer": 5875,
      "watched": 5876,
      "solve": 5877,
      "pending": 5878,
      "focused": 5879,
      "ffffff": 5880,
      "palestine": 5881,
      "resource": 5882,
      "prepared": 5883,
      "jelaton": 5884,
      "kir": 5885,
      "folk": 5886,
      "store": 5887,
      "superior": 5888,
      "potentially": 5889,
      "citizen": 5890,
      "selected": 5891,
      "greetings": 5892,
      "shif": 5893,
      "realise": 5894,
      "bums": 5895,
      "cleaning": 5896,
      "picking": 5897,
      "register": 5898,
      "emphasis": 5899,
      "vagina": 5900,
      "lgbt": 5901,
      "convince": 5902,
      "soap": 5903,
      "seeking": 5904,
      "warming": 5905,
      "politically": 5906,
      "barbar": 5907,
      "surround": 5908,
      "decades": 5909,
      "puppetry": 5910,
      "pretend": 5911,
      "assumption": 5912,
      "ening": 5913,
      "bee": 5914,
      "endor": 5915,
      "kings": 5916,
      "tries": 5917,
      "legend": 5918,
      "doub": 5919,
      "worthless": 5920,
      "cunts": 5921,
      "elections": 5922,
      "figured": 5923,
      "untru": 5924,
      "cellspacing": 5925,
      "announced": 5926,
      "arrogant": 5927,
      "manufact": 5928,
      "wy": 5929,
      "acces": 5930,
      "chuck": 5931,
      "rip": 5932,
      "youth": 5933,
      "awful": 5934,
      "remaining": 5935,
      "budd": 5936,
      "suspected": 5937,
      "publishing": 5938,
      "substantially": 5939,
      "narrow": 5940,
      "pull": 5941,
      "fought": 5942,
      "mason": 5943,
      "sted": 5944,
      "doc": 5945,
      "crus": 5946,
      "viewed": 5947,
      "legis": 5948,
      "legally": 5949,
      "organized": 5950,
      "implic": 5951,
      "sweet": 5952,
      "andrew": 5953,
      "backed": 5954,
      "centu": 5955,
      "authorities": 5956,
      "soul": 5957,
      "feminazi": 5958,
      "attribution": 5959,
      "rely": 5960,
      "reform": 5961,
      "stere": 5962,
      "boi": 5963,
      "miles": 5964,
      "selling": 5965,
      "mohammed": 5966,
      "during": 5967,
      "tough": 5968,
      "tured": 5969,
      "filed": 5970,
      "profit": 5971,
      "iling": 5972,
      "myster": 5973,
      "checkuser": 5974,
      "kko": 5975,
      "stats": 5976,
      "golden": 5977,
      "rrrr": 5978,
      "reception": 5979,
      "forgive": 5980,
      "cessive": 5981,
      "presum": 5982,
      "drawn": 5983,
      "scheme": 5984,
      "paraphr": 5985,
      "ache": 5986,
      "units": 5987,
      "exchange": 5988,
      "runs": 5989,
      "cats": 5990,
      "scientist": 5991,
      "rolling": 5992,
      "hp": 5993,
      "stance": 5994,
      "conference": 5995,
      "guest": 5996,
      "causing": 5997,
      "copyvio": 5998,
      "distance": 5999,
      "magic": 6000,
      "trolls": 6001,
      "route": 6002,
      "quiet": 6003,
      "rere": 6004,
      "yard": 6005,
      "inher": 6006,
      "feet": 6007,
      "caste": 6008,
      "fields": 6009,
      "whats": 6010,
      "programs": 6011,
      "attributed": 6012,
      "lolololo": 6013,
      "kal": 6014,
      "edge": 6015,
      "syria": 6016,
      "offfuck": 6017,
      "argued": 6018,
      "polit": 6019,
      "sensitive": 6020,
      "dur": 6021,
      "ml": 6022,
      "rhe": 6023,
      "alum": 6024,
      "gos": 6025,
      "merger": 6026,
      "refused": 6027,
      "mormon": 6028,
      "holds": 6029,
      "representative": 6030,
      "jobs": 6031,
      "stephen": 6032,
      "session": 6033,
      "aj": 6034,
      "lly": 6035,
      "vg": 6036,
      "wwe": 6037,
      "zation": 6038,
      "ships": 6039,
      "selecting": 6040,
      "chain": 6041,
      "quette": 6042,
      "filter": 6043,
      "dealt": 6044,
      "promoted": 6045,
      "hahahahahahahahahahahahahahahaha": 6046,
      "adopted": 6047,
      "virtually": 6048,
      "prophet": 6049,
      "astic": 6050,
      "ldo": 6051,
      "nah": 6052,
      "searching": 6053,
      "ggle": 6054,
      "indicated": 6055,
      "alien": 6056,
      "models": 6057,
      "nine": 6058,
      "rm": 6059,
      "inn": 6060,
      "tip": 6061,
      "genes": 6062,
      "vandalising": 6063,
      "header": 6064,
      "nikko": 6065,
      "inserting": 6066,
      "thousand": 6067,
      "distinct": 6068,
      "kamado": 6069,
      "judaism": 6070,
      "dna": 6071,
      "dave": 6072,
      "kans": 6073,
      "nc": 6074,
      "sometime": 6075,
      "singer": 6076,
      "sons": 6077,
      "drogon": 6078,
      "universal": 6079,
      "demonstrate": 6080,
      "fantasy": 6081,
      "audience": 6082,
      "dre": 6083,
      "gamer": 6084,
      "hates": 6085,
      "iently": 6086,
      "nj": 6087,
      "eno": 6088,
      "dete": 6089,
      "mock": 6090,
      "sens": 6091,
      "weekend": 6092,
      "typically": 6093,
      "datab": 6094,
      "slut": 6095,
      "oxford": 6096,
      "broadcast": 6097,
      "skep": 6098,
      "subsequent": 6099,
      "facilitate": 6100,
      "senior": 6101,
      "involving": 6102,
      "censored": 6103,
      "rarely": 6104,
      "capacity": 6105,
      "analanal": 6106,
      "adminship": 6107,
      "modified": 6108,
      "scotland": 6109,
      "scan": 6110,
      "rebel": 6111,
      "returned": 6112,
      "sphere": 6113,
      "mond": 6114,
      "vocate": 6115,
      "otes": 6116,
      "ooo": 6117,
      "dding": 6118,
      "heshe": 6119,
      "teachers": 6120,
      "terminology": 6121,
      "solely": 6122,
      "pra": 6123,
      "pian": 6124,
      "sport": 6125,
      "outr": 6126,
      "acqu": 6127,
      "perse": 6128,
      "fags": 6129,
      "situ": 6130,
      "slave": 6131,
      "spelled": 6132,
      "objects": 6133,
      "weapons": 6134,
      "interpreted": 6135,
      "suddenly": 6136,
      "imperial": 6137,
      "distinguish": 6138,
      "gle": 6139,
      "screens": 6140,
      "amazon": 6141,
      "receiving": 6142,
      "kosovo": 6143,
      "bust": 6144,
      "eating": 6145,
      "lit": 6146,
      "rics": 6147,
      "thir": 6148,
      "chop": 6149,
      "cred": 6150,
      "brac": 6151,
      "nationalism": 6152,
      "douche": 6153,
      "adequ": 6154,
      "georgia": 6155,
      "centuries": 6156,
      "fj": 6157,
      "oral": 6158,
      "icious": 6159,
      "asses": 6160,
      "workers": 6161,
      "denied": 6162,
      "religions": 6163,
      "ym": 6164,
      "wii": 6165,
      "correction": 6166,
      "misunderstanding": 6167,
      "cycle": 6168,
      "accordingly": 6169,
      "dropped": 6170,
      "inf": 6171,
      "aly": 6172,
      "ensing": 6173,
      "aran": 6174,
      "uphor": 6175,
      "commenting": 6176,
      "against": 6177,
      "intentions": 6178,
      "pissed": 6179,
      "concepts": 6180,
      "dress": 6181,
      "sic": 6182,
      "agf": 6183,
      "soc": 6184,
      "lical": 6185,
      "mono": 6186,
      "signs": 6187,
      "descend": 6188,
      "salt": 6189,
      "wrestling": 6190,
      "sovere": 6191,
      "presumably": 6192,
      "flying": 6193,
      "enus": 6194,
      "thru": 6195,
      "pelican": 6196,
      "bodies": 6197,
      "bile": 6198,
      "cute": 6199,
      "carol": 6200,
      "communism": 6201,
      "silver": 6202,
      "hd": 6203,
      "invalid": 6204,
      "indefinitely": 6205,
      "rey": 6206,
      "conformance": 6207,
      "noone": 6208,
      "bos": 6209,
      "contentious": 6210,
      "upper": 6211,
      "inem": 6212,
      "rence": 6213,
      "empty": 6214,
      "invasion": 6215,
      "journalist": 6216,
      "reduce": 6217,
      "uuuuuuuuuuuuuuuuuuuuuuuuuuuuuuuu": 6218,
      "comfortable": 6219,
      "florida": 6220,
      "stereo": 6221,
      "iro": 6222,
      "sig": 6223,
      "nose": 6224,
      "options": 6225,
      "bots": 6226,
      "diffs": 6227,
      "surface": 6228,
      "surprise": 6229,
      "severe": 6230,
      "wonderful": 6231,
      "supposedly": 6232,
      "shadow": 6233,
      "olymp": 6234,
      "tz": 6235,
      "adjust": 6236,
      "notion": 6237,
      "motor": 6238,
      "plate": 6239,
      "heaven": 6240,
      "cooper": 6241,
      "obsc": 6242,
      "speaker": 6243,
      "slaves": 6244,
      "buddy": 6245,
      "opposing": 6246,
      "regularly": 6247,
      "egypt": 6248,
      "marketing": 6249,
      "obscure": 6250,
      "punch": 6251,
      "assass": 6252,
      "judgment": 6253,
      "liberals": 6254,
      "babies": 6255,
      "extended": 6256,
      "integrity": 6257,
      "permitted": 6258,
      "buck": 6259,
      "effic": 6260,
      "gd": 6261,
      "stret": 6262,
      "wease": 6263,
      "cow": 6264,
      "cric": 6265,
      "issued": 6266,
      "sexsex": 6267,
      "rowspan": 6268,
      "limits": 6269,
      "surprising": 6270,
      "engineering": 6271,
      "gggggggg": 6272,
      "nnnnnnnnnnnnnnnnnnnnnnnnnnnnnnnn": 6273,
      "isbn": 6274,
      "icon": 6275,
      "teh": 6276,
      "reversion": 6277,
      "harrass": 6278,
      "godd": 6279,
      "install": 6280,
      "baseball": 6281,
      "threatened": 6282,
      "depth": 6283,
      "encyclopaedia": 6284,
      "gers": 6285,
      "iam": 6286,
      "jab": 6287,
      "gosla": 6288,
      "essed": 6289,
      "logically": 6290,
      "approval": 6291,
      "completed": 6292,
      "accordance": 6293,
      "puppets": 6294,
      "requirement": 6295,
      "towns": 6296,
      "alert": 6297,
      "comprehensive": 6298,
      "nb": 6299,
      "anna": 6300,
      "raw": 6301,
      "serving": 6302,
      "crisis": 6303,
      "colors": 6304,
      "entity": 6305,
      "testi": 6306,
      "flaw": 6307,
      "rename": 6308,
      "assem": 6309,
      "elabor": 6310,
      "condem": 6311,
      "raine": 6312,
      "tales": 6313,
      "boring": 6314,
      "homeland": 6315,
      "elected": 6316,
      "bitchesfuck": 6317,
      "initially": 6318,
      "supply": 6319,
      "finger": 6320,
      "lind": 6321,
      "yan": 6322,
      "ened": 6323,
      "thal": 6324,
      "attr": 6325,
      "kevin": 6326,
      "goth": 6327,
      "dozen": 6328,
      "monarch": 6329,
      "senti": 6330,
      "centre": 6331,
      "natives": 6332,
      "johnson": 6333,
      "significantly": 6334,
      "shape": 6335,
      "drugs": 6336,
      "warrior": 6337,
      "stab": 6338,
      "gling": 6339,
      "biographical": 6340,
      "insane": 6341,
      "recognise": 6342,
      "digital": 6343,
      "ssssssss": 6344,
      "approxim": 6345,
      "ride": 6346,
      "excessive": 6347,
      "plans": 6348,
      "minds": 6349,
      "zeuphor": 6350,
      "socks": 6351,
      "domes": 6352,
      "settled": 6353,
      "zeuphoris": 6354,
      "retired": 6355,
      "weigh": 6356,
      "factually": 6357,
      "everyday": 6358,
      "personality": 6359,
      "sheet": 6360,
      "indication": 6361,
      "meaningful": 6362,
      "sanction": 6363,
      "albanian": 6364,
      "egyp": 6365,
      "antisemitism": 6366,
      "beck": 6367,
      "dos": 6368,
      "intervention": 6369,
      "announce": 6370,
      "chemical": 6371,
      "fits": 6372,
      "hs": 6373,
      "paged": 6374,
      "witch": 6375,
      "comics": 6376,
      "boot": 6377,
      "shak": 6378,
      "hah": 6379,
      "austri": 6380,
      "reliability": 6381,
      "communities": 6382,
      "distor": 6383,
      "birthday": 6384,
      "smile": 6385,
      "retri": 6386,
      "consu": 6387,
      "disrespect": 6388,
      "cof": 6389,
      "singles": 6390,
      "banning": 6391,
      "carried": 6392,
      "sadly": 6393,
      "acknowledged": 6394,
      "arc": 6395,
      "dev": 6396,
      "aded": 6397,
      "tered": 6398,
      "lla": 6399,
      "corrections": 6400,
      "descent": 6401,
      "hospital": 6402,
      "bird": 6403,
      "png": 6404,
      "tel": 6405,
      "eration": 6406,
      "isy": 6407,
      "advocate": 6408,
      "consci": 6409,
      "peenus": 6410,
      "heat": 6411,
      "miley": 6412,
      "posing": 6413,
      "worded": 6414,
      "timeline": 6415,
      "elete": 6416,
      "preference": 6417,
      "jimmy": 6418,
      "annoy": 6419,
      "practices": 6420,
      "enforcement": 6421,
      "azerbai": 6422,
      "notr": 6423,
      "compati": 6424,
      "neg": 6425,
      "imdb": 6426,
      "irs": 6427,
      "shell": 6428,
      "ody": 6429,
      "dipl": 6430,
      "nominations": 6431,
      "disagreement": 6432,
      "synthesis": 6433,
      "effectively": 6434,
      "swedish": 6435,
      "bm": 6436,
      "twat": 6437,
      "leban": 6438,
      "icial": 6439,
      "worship": 6440,
      "hehe": 6441,
      "addressing": 6442,
      "assy": 6443,
      "logging": 6444,
      "sorts": 6445,
      "correcting": 6446,
      "hart": 6447,
      "alem": 6448,
      "panic": 6449,
      "observ": 6450,
      "bunk": 6451,
      "recreate": 6452,
      "agno": 6453,
      "beg": 6454,
      "essential": 6455,
      "nevertheless": 6456,
      "conflicts": 6457,
      "connect": 6458,
      "electric": 6459,
      "spoke": 6460,
      "pronunci": 6461,
      "collaboration": 6462,
      "das": 6463,
      "eight": 6464,
      "lars": 6465,
      "oce": 6466,
      "pics": 6467,
      "thr": 6468,
      "goals": 6469,
      "oked": 6470,
      "wellknown": 6471,
      "cheap": 6472,
      "participants": 6473,
      "stalin": 6474,
      "strip": 6475,
      "sarcas": 6476,
      "encouraged": 6477,
      "ruled": 6478,
      "identical": 6479,
      "lli": 6480,
      "entic": 6481,
      "loose": 6482,
      "editwarring": 6483,
      "exposed": 6484,
      "coach": 6485,
      "saved": 6486,
      "licensing": 6487,
      "interviews": 6488,
      "portugu": 6489,
      "cheat": 6490,
      "dropdown": 6491,
      "secular": 6492,
      "vehicle": 6493,
      "gul": 6494,
      "lyrics": 6495,
      "unbiased": 6496,
      "ultimately": 6497,
      "grate": 6498,
      "ideal": 6499,
      "instances": 6500,
      "demonstrated": 6501,
      "permanent": 6502,
      "endorse": 6503,
      "ole": 6504,
      "ero": 6505,
      "alt": 6506,
      "lith": 6507,
      "rol": 6508,
      "combat": 6509,
      "subsection": 6510,
      "covering": 6511,
      "succeed": 6512,
      "flags": 6513,
      "updating": 6514,
      "yyyyyyyyyyyyyyyyyyyyyyyyyyyyyyyy": 6515,
      "inj": 6516,
      "tery": 6517,
      "boss": 6518,
      "shan": 6519,
      "plays": 6520,
      "brian": 6521,
      "jerus": 6522,
      "semiprotected": 6523,
      "feminist": 6524,
      "occupied": 6525,
      "antisemitic": 6526,
      "partisan": 6527,
      "ukrainian": 6528,
      "rat": 6529,
      "silence": 6530,
      "petty": 6531,
      "indians": 6532,
      "taste": 6533,
      "fron": 6534,
      "depends": 6535,
      "guidance": 6536,
      "nals": 6537,
      "neck": 6538,
      "urge": 6539,
      "divid": 6540,
      "ysouth": 6541,
      "stubs": 6542,
      "handed": 6543,
      "cyrus": 6544,
      "malicious": 6545,
      "alternate": 6546,
      "tactics": 6547,
      "utterly": 6548,
      "elementary": 6549,
      "platform": 6550,
      "jerusalem": 6551,
      "sees": 6552,
      "tali": 6553,
      "weather": 6554,
      "killer": 6555,
      "lawdy": 6556,
      "participation": 6557,
      "quotations": 6558,
      "teaching": 6559,
      "throwing": 6560,
      "maxim": 6561,
      "gallery": 6562,
      "assault": 6563,
      "overwhelming": 6564,
      "jk": 6565,
      "serves": 6566,
      "duke": 6567,
      "expertise": 6568,
      "radi": 6569,
      "pagedelete": 6570,
      "bby": 6571,
      "vu": 6572,
      "inqu": 6573,
      "stamp": 6574,
      "kidding": 6575,
      "heck": 6576,
      "hiding": 6577,
      "destruction": 6578,
      "bap": 6579,
      "bath": 6580,
      "stations": 6581,
      "navi": 6582,
      "singh": 6583,
      "classes": 6584,
      "enwikipediaorgwik": 6585,
      "amongst": 6586,
      "replacement": 6587,
      "joining": 6588,
      "constitute": 6589,
      "embarrass": 6590,
      "dictatorship": 6591,
      "inal": 6592,
      "roots": 6593,
      "josh": 6594,
      "meantime": 6595,
      "banof": 6596,
      "idiotic": 6597,
      "physic": 6598,
      "alexander": 6599,
      "alogue": 6600,
      "accomplish": 6601,
      "advantage": 6602,
      "notrhb": 6603,
      "ego": 6604,
      "loud": 6605,
      "adi": 6606,
      "advent": 6607,
      "theat": 6608,
      "dislike": 6609,
      "merits": 6610,
      "presenting": 6611,
      "borrow": 6612,
      "meaningless": 6613,
      "planned": 6614,
      "journals": 6615,
      "phrases": 6616,
      "leaves": 6617,
      "homosexuality": 6618,
      "dddddddd": 6619,
      "ysouthbanof": 6620,
      "notrhbysouthbanof": 6621,
      "clow": 6622,
      "pha": 6623,
      "charts": 6624,
      "instein": 6625,
      "screw": 6626,
      "flood": 6627,
      "domestic": 6628,
      "cf": 6629,
      "pd": 6630,
      "outing": 6631,
      "abled": 6632,
      "motion": 6633,
      "remote": 6634,
      "yugosla": 6635,
      "sarah": 6636,
      "swear": 6637,
      "victory": 6638,
      "knock": 6639,
      "iiiiiiii": 6640,
      "yuyuyuyuyuyuyuyuyuyuyuyuyuyuyuyu": 6641,
      "pound": 6642,
      "scor": 6643,
      "edward": 6644,
      "deli": 6645,
      "conce": 6646,
      "aband": 6647,
      "margin": 6648,
      "uding": 6649,
      "harder": 6650,
      "solved": 6651,
      "patent": 6652,
      "educational": 6653,
      "sample": 6654,
      "feminism": 6655,
      "deeply": 6656,
      "reduced": 6657,
      "politician": 6658,
      "warranted": 6659,
      "gb": 6660,
      "kis": 6661,
      "spar": 6662,
      "clan": 6663,
      "aaa": 6664,
      "outcome": 6665,
      "banner": 6666,
      "publicly": 6667,
      "scandal": 6668,
      "assertions": 6669,
      "hypothesis": 6670,
      "unreferenced": 6671,
      "theme": 6672,
      "cooperation": 6673,
      "parame": 6674,
      "saint": 6675,
      "pride": 6676,
      "signing": 6677,
      "meanwhile": 6678,
      "stupidity": 6679,
      "varia": 6680,
      "deaths": 6681,
      "darwin": 6682,
      "practical": 6683,
      "crown": 6684,
      "stalk": 6685,
      "lucky": 6686,
      "intentionally": 6687,
      "tytytytytytytytytytytytytytytyty": 6688,
      "strength": 6689,
      "bought": 6690,
      "cze": 6691,
      "fame": 6692,
      "acies": 6693,
      "corner": 6694,
      "renaming": 6695,
      "descriptions": 6696,
      "buildings": 6697,
      "competition": 6698,
      "naturally": 6699,
      "strictly": 6700,
      "homophobic": 6701,
      "portuguese": 6702,
      "lately": 6703,
      "nr": 6704,
      "tio": 6705,
      "agent": 6706,
      "elle": 6707,
      "indo": 6708,
      "hai": 6709,
      "studio": 6710,
      "univer": 6711,
      "traffic": 6712,
      "captain": 6713,
      "releases": 6714,
      "driving": 6715,
      "complaining": 6716,
      "depending": 6717,
      "fla": 6718,
      "ups": 6719,
      "monster": 6720,
      "criti": 6721,
      "prize": 6722,
      "valley": 6723,
      "authentic": 6724,
      "bsd": 6725,
      "academy": 6726,
      "sunday": 6727,
      "narrative": 6728,
      "patience": 6729,
      "barely": 6730,
      "complicated": 6731,
      "jum": 6732,
      "arious": 6733,
      "depic": 6734,
      "ukraine": 6735,
      "historically": 6736,
      "engaging": 6737,
      "regions": 6738,
      "proposing": 6739,
      "performed": 6740,
      "cocksucking": 6741,
      "politicians": 6742,
      "weapon": 6743,
      "orphaned": 6744,
      "oi": 6745,
      "ota": 6746,
      "thed": 6747,
      "hoe": 6748,
      "aks": 6749,
      "listening": 6750,
      "communicate": 6751,
      "obtained": 6752,
      "database": 6753,
      "zes": 6754,
      "forgotten": 6755,
      "marine": 6756,
      "spel": 6757,
      "trigger": 6758,
      "differently": 6759,
      "tons": 6760,
      "score": 6761,
      "enemies": 6762,
      "murdered": 6763,
      "persistent": 6764,
      "weasel": 6765,
      "ey": 6766,
      "evol": 6767,
      "ottom": 6768,
      "outs": 6769,
      "atri": 6770,
      "ching": 6771,
      "yousse": 6772,
      "attached": 6773,
      "bulgarian": 6774,
      "welsh": 6775,
      "openly": 6776,
      "amounts": 6777,
      "safety": 6778,
      "scared": 6779,
      "coffee": 6780,
      "youssef": 6781,
      "vity": 6782,
      "zone": 6783,
      "rier": 6784,
      "whit": 6785,
      "avoided": 6786,
      "cuted": 6787,
      "hurdy": 6788,
      "expanding": 6789,
      "etymo": 6790,
      "grown": 6791,
      "corporate": 6792,
      "chronic": 6793,
      "combined": 6794,
      "cous": 6795,
      "festi": 6796,
      "kit": 6797,
      "lone": 6798,
      "lame": 6799,
      "xon": 6800,
      "chen": 6801,
      "assure": 6802,
      "beli": 6803,
      "cler": 6804,
      "coher": 6805,
      "factors": 6806,
      "chemist": 6807,
      "finds": 6808,
      "trait": 6809,
      "malay": 6810,
      "circumcision": 6811,
      "applicable": 6812,
      "ruling": 6813,
      "motivated": 6814,
      "eti": 6815,
      "zens": 6816,
      "bec": 6817,
      "perpe": 6818,
      "attend": 6819,
      "synon": 6820,
      "copies": 6821,
      "appearing": 6822,
      "layout": 6823,
      "nickname": 6824,
      "passion": 6825,
      "pleasure": 6826,
      "gurdyhurdy": 6827,
      "simplified": 6828,
      "discipl": 6829,
      "festival": 6830,
      "kon": 6831,
      "seperate": 6832,
      "losing": 6833,
      "progressive": 6834,
      "displayed": 6835,
      "friday": 6836,
      "ordered": 6837,
      "crapcrapcrapcrapcrapcrapcrapcrap": 6838,
      "fabric": 6839,
      "bright": 6840,
      "nac": 6841,
      "npa": 6842,
      "pdf": 6843,
      "insight": 6844,
      "itative": 6845,
      "default": 6846,
      "ghob": 6847,
      "hoc": 6848,
      "addy": 6849,
      "doom": 6850,
      "rug": 6851,
      "bang": 6852,
      "visual": 6853,
      "repeating": 6854,
      "philosoph": 6855,
      "doctr": 6856,
      "corrupt": 6857,
      "restoring": 6858,
      "slander": 6859,
      "cj": 6860,
      "jur": 6861,
      "knight": 6862,
      "cease": 6863,
      "cott": 6864,
      "cain": 6865,
      "pregn": 6866,
      "typo": 6867,
      "reverse": 6868,
      "regret": 6869,
      "bash": 6870,
      "emails": 6871,
      "liberty": 6872,
      "libertar": 6873,
      "rapid": 6874,
      "predic": 6875,
      "rig": 6876,
      "illy": 6877,
      "theres": 6878,
      "shel": 6879,
      "gible": 6880,
      "flash": 6881,
      "breach": 6882,
      "footnotes": 6883,
      "hurric": 6884,
      "patient": 6885,
      "pom": 6886,
      "zu": 6887,
      "imho": 6888,
      "counts": 6889,
      "dying": 6890,
      "charged": 6891,
      "romney": 6892,
      "operating": 6893,
      "fsd": 6894,
      "recommended": 6895,
      "abandon": 6896,
      "ghobrial": 6897,
      "sri": 6898,
      "zab": 6899,
      "lim": 6900,
      "agger": 6901,
      "abilities": 6902,
      "parad": 6903,
      "formation": 6904,
      "harris": 6905,
      "googlecom": 6906,
      "contract": 6907,
      "fuel": 6908,
      "labeled": 6909,
      "motherfuckerdie": 6910,
      "llllllll": 6911,
      "iser": 6912,
      "ros": 6913,
      "loo": 6914,
      "sities": 6915,
      "veness": 6916,
      "reversions": 6917,
      "phd": 6918,
      "relate": 6919,
      "harth": 6920,
      "implying": 6921,
      "actively": 6922,
      "confirmation": 6923,
      "incidentally": 6924,
      "hollywood": 6925,
      "writings": 6926,
      "scottish": 6927,
      "entertainment": 6928,
      "inspired": 6929,
      "grateful": 6930,
      "dating": 6931,
      "hated": 6932,
      "km": 6933,
      "paren": 6934,
      "lem": 6935,
      "noting": 6936,
      "mobile": 6937,
      "derived": 6938,
      "eller": 6939,
      "corps": 6940,
      "harsh": 6941,
      "graphics": 6942,
      "jordan": 6943,
      "apologise": 6944,
      "selective": 6945,
      "camera": 6946,
      "hostile": 6947,
      "advertisement": 6948,
      "mers": 6949,
      "yep": 6950,
      "carto": 6951,
      "justin": 6952,
      "romanian": 6953,
      "crying": 6954,
      "mmmmmmmm": 6955,
      "bizar": 6956,
      "fontsize": 6957,
      "bis": 6958,
      "juni": 6959,
      "mitt": 6960,
      "winter": 6961,
      "intim": 6962,
      "beer": 6963,
      "spy": 6964,
      "nich": 6965,
      "replies": 6966,
      "grees": 6967,
      "gramma": 6968,
      "fana": 6969,
      "objec": 6970,
      "cleaned": 6971,
      "translations": 6972,
      "blatantly": 6973,
      "williams": 6974,
      "floor": 6975,
      "bishop": 6976,
      "nish": 6977,
      "vine": 6978,
      "entered": 6979,
      "une": 6980,
      "virus": 6981,
      "meta": 6982,
      "clu": 6983,
      "ables": 6984,
      "navy": 6985,
      "specul": 6986,
      "drum": 6987,
      "purch": 6988,
      "yahoo": 6989,
      "churches": 6990,
      "constitutional": 6991,
      "advanced": 6992,
      "alco": 6993,
      "proving": 6994,
      "boat": 6995,
      "manager": 6996,
      "dozens": 6997,
      "priest": 6998,
      "niger": 6999,
      "copying": 7000,
      "generic": 7001,
      "nny": 7002,
      "malho": 7003,
      "representing": 7004,
      "logies": 7005,
      "errone": 7006,
      "undoing": 7007,
      "neighbor": 7008,
      "proxy": 7009,
      "fis": 7010,
      "rf": 7011,
      "vass": 7012,
      "replacing": 7013,
      "root": 7014,
      "verification": 7015,
      "unifor": 7016,
      "coat": 7017,
      "foolish": 7018,
      "reflects": 7019,
      "untrue": 7020,
      "vard": 7021,
      "yi": 7022,
      "chill": 7023,
      "codes": 7024,
      "dow": 7025,
      "diet": 7026,
      "akh": 7027,
      "basket": 7028,
      "dragon": 7029,
      "wheel": 7030,
      "formatted": 7031,
      "consistently": 7032,
      "gression": 7033,
      "championship": 7034,
      "guardian": 7035,
      "absence": 7036,
      "rd": 7037,
      "sme": 7038,
      "ora": 7039,
      "agged": 7040,
      "degrees": 7041,
      "chhe": 7042,
      "abused": 7043,
      "iff": 7044,
      "boston": 7045,
      "shah": 7046,
      "myspace": 7047,
      "clearer": 7048,
      "outright": 7049,
      "races": 7050,
      "anglo": 7051,
      "emper": 7052,
      "documentary": 7053,
      "economics": 7054,
      "territories": 7055,
      "psychology": 7056,
      "affected": 7057,
      "exercise": 7058,
      "bunksteve": 7059,
      "each": 7060,
      "lum": 7061,
      "pants": 7062,
      "itz": 7063,
      "amy": 7064,
      "consent": 7065,
      "ions": 7066,
      "appropriately": 7067,
      "airport": 7068,
      "substance": 7069,
      "growth": 7070,
      "cccccccccccccccc": 7071,
      "bout": 7072,
      "talkcontribs": 7073,
      "ported": 7074,
      "astron": 7075,
      "serbs": 7076,
      "comply": 7077,
      "invitation": 7078,
      "privacy": 7079,
      "tribes": 7080,
      "thrown": 7081,
      "kitch": 7082,
      "rally": 7083,
      "lover": 7084,
      "keys": 7085,
      "tower": 7086,
      "lesbian": 7087,
      "faq": 7088,
      "laid": 7089,
      "vandalise": 7090,
      "bullet": 7091,
      "improper": 7092,
      "angers": 7093,
      "troops": 7094,
      "mirror": 7095,
      "revealed": 7096,
      "volunteer": 7097,
      "vage": 7098,
      "atom": 7099,
      "lities": 7100,
      "chess": 7101,
      "headed": 7102,
      "sexuality": 7103,
      "enwikipediaorgwikiwikipedia": 7104,
      "tamil": 7105,
      "microsoft": 7106,
      "wwwwwwwwwwwwwwwwwwwwwwwwwwwwwwww": 7107,
      "resistance": 7108,
      "branch": 7109,
      "md": 7110,
      "onian": 7111,
      "ultimate": 7112,
      "youre": 7113,
      "forbid": 7114,
      "paralle": 7115,
      "fold": 7116,
      "firstly": 7117,
      "genres": 7118,
      "shitty": 7119,
      "styles": 7120,
      "nerd": 7121,
      "lacks": 7122,
      "controversies": 7123,
      "bastards": 7124,
      "croatia": 7125,
      "permanently": 7126,
      "transi": 7127,
      "insur": 7128,
      "rewriting": 7129,
      "det": 7130,
      "quanti": 7131,
      "forcing": 7132,
      "guaran": 7133,
      "counted": 7134,
      "fairuse": 7135,
      "scient": 7136,
      "lawy": 7137,
      "governor": 7138,
      "defence": 7139,
      "membership": 7140,
      "paying": 7141,
      "briefly": 7142,
      "exclusively": 7143,
      "saturday": 7144,
      "pronunciation": 7145,
      "wang": 7146,
      "income": 7147,
      "incivility": 7148,
      "revol": 7149,
      "tight": 7150,
      "mot": 7151,
      "manif": 7152,
      "pressive": 7153,
      "centric": 7154,
      "importantly": 7155,
      "ppy": 7156,
      "republicans": 7157,
      "incorrectly": 7158,
      "scholarship": 7159,
      "husband": 7160,
      "consequences": 7161,
      "kashmir": 7162,
      "yam": 7163,
      "chest": 7164,
      "bigo": 7165,
      "brings": 7166,
      "pretending": 7167,
      "fundament": 7168,
      "railway": 7169,
      "hilarious": 7170,
      "strategy": 7171,
      "consult": 7172,
      "taiwan": 7173,
      "rhetor": 7174,
      "outrage": 7175,
      "bite": 7176,
      "dry": 7177,
      "lud": 7178,
      "sadd": 7179,
      "vomit": 7180,
      "arthur": 7181,
      "spending": 7182,
      "cracy": 7183,
      "sexy": 7184,
      "brah": 7185,
      "immediate": 7186,
      "kurds": 7187,
      "oooooooooooooooo": 7188,
      "employed": 7189,
      "jacob": 7190,
      "frozen": 7191,
      "agency": 7192,
      "aman": 7193,
      "mah": 7194,
      "cious": 7195,
      "oblig": 7196,
      "gery": 7197,
      "lastly": 7198,
      "brazil": 7199,
      "influenced": 7200,
      "spreading": 7201,
      "revisions": 7202,
      "incorporated": 7203,
      "neiln": 7204,
      "amendment": 7205,
      "tweets": 7206,
      "kor": 7207,
      "thead": 7208,
      "para": 7209,
      "forest": 7210,
      "mytho": 7211,
      "cyprus": 7212,
      "grew": 7213,
      "minorities": 7214,
      "comparing": 7215,
      "credibly": 7216,
      "photographs": 7217,
      "perceived": 7218,
      "bren": 7219,
      "emer": 7220,
      "lm": 7221,
      "altogether": 7222,
      "accent": 7223,
      "loving": 7224,
      "nope": 7225,
      "synt": 7226,
      "courtes": 7227,
      "ashamed": 7228,
      "confid": 7229,
      "qualifies": 7230,
      "observation": 7231,
      "squad": 7232,
      "spiritual": 7233,
      "kelly": 7234,
      "hish": 7235,
      "zar": 7236,
      "stani": 7237,
      "veg": 7238,
      "nego": 7239,
      "lesson": 7240,
      "cution": 7241,
      "smack": 7242,
      "bytes": 7243,
      "restaur": 7244,
      "thirdparty": 7245,
      "interpretations": 7246,
      "mexican": 7247,
      "hungarian": 7248,
      "hillary": 7249,
      "institution": 7250,
      "modify": 7251,
      "convert": 7252,
      "convicted": 7253,
      "tidio": 7254,
      "goo": 7255,
      "talent": 7256,
      "marcol": 7257,
      "davis": 7258,
      "gods": 7259,
      "validity": 7260,
      "presidential": 7261,
      "succes": 7262,
      "bone": 7263,
      "gaming": 7264,
      "eda": 7265,
      "agu": 7266,
      "iah": 7267,
      "mole": 7268,
      "toxic": 7269,
      "spon": 7270,
      "facto": 7271,
      "tribe": 7272,
      "confuse": 7273,
      "transparent": 7274,
      "circle": 7275,
      "emotional": 7276,
      "punishment": 7277,
      "tidiotidio": 7278,
      "pash": 7279,
      "isol": 7280,
      "device": 7281,
      "robin": 7282,
      "iring": 7283,
      "actress": 7284,
      "refle": 7285,
      "brilli": 7286,
      "failing": 7287,
      "precedent": 7288,
      "guru": 7289,
      "slim": 7290,
      "arbitrary": 7291,
      "competent": 7292,
      "therapy": 7293,
      "fsdfsd": 7294,
      "courtesy": 7295,
      "bic": 7296,
      "bia": 7297,
      "leo": 7298,
      "icip": 7299,
      "ween": 7300,
      "hem": 7301,
      "creates": 7302,
      "girlfriend": 7303,
      "cript": 7304,
      "motivation": 7305,
      "plagiarism": 7306,
      "kiss": 7307,
      "pel": 7308,
      "pical": 7309,
      "sne": 7310,
      "tier": 7311,
      "silent": 7312,
      "igen": 7313,
      "toe": 7314,
      "gib": 7315,
      "giant": 7316,
      "yea": 7317,
      "senate": 7318,
      "harte": 7319,
      "incidence": 7320,
      "assumptions": 7321,
      "advised": 7322,
      "marcolfuck": 7323,
      "rek": 7324,
      "abstr": 7325,
      "quant": 7326,
      "evening": 7327,
      "brut": 7328,
      "drunk": 7329,
      "wheels": 7330,
      "authoritative": 7331,
      "contacted": 7332,
      "replying": 7333,
      "locations": 7334,
      "sharing": 7335,
      "castle": 7336,
      "laughing": 7337,
      "principal": 7338,
      "collap": 7339,
      "dollars": 7340,
      "shorter": 7341,
      "thoroughly": 7342,
      "situations": 7343,
      "intimid": 7344,
      "aer": 7345,
      "sno": 7346,
      "wes": 7347,
      "erase": 7348,
      "eness": 7349,
      "arrange": 7350,
      "atro": 7351,
      "portions": 7352,
      "parti": 7353,
      "warm": 7354,
      "boymamas": 7355,
      "stitute": 7356,
      "owns": 7357,
      "socialism": 7358,
      "fruit": 7359,
      "cabal": 7360,
      "hypocrisy": 7361,
      "infinite": 7362,
      "younger": 7363,
      "aud": 7364,
      "kong": 7365,
      "alli": 7366,
      "thumb": 7367,
      "stad": 7368,
      "chor": 7369,
      "sip": 7370,
      "proportion": 7371,
      "mentally": 7372,
      "likewise": 7373,
      "blon": 7374,
      "spa": 7375,
      "dynasty": 7376,
      "noteworthy": 7377,
      "promotes": 7378,
      "emailed": 7379,
      "faces": 7380,
      "infoboxes": 7381,
      "illustrate": 7382,
      "linguistic": 7383,
      "anarchist": 7384,
      "holiday": 7385,
      "cash": 7386,
      "hint": 7387,
      "kho": 7388,
      "infringe": 7389,
      "incredibly": 7390,
      "steven": 7391,
      "oroz": 7392,
      "wider": 7393,
      "illa": 7394,
      "ider": 7395,
      "formula": 7396,
      "crew": 7397,
      "credits": 7398,
      "penn": 7399,
      "drawing": 7400,
      "experiences": 7401,
      "equip": 7402,
      "begins": 7403,
      "unfortunate": 7404,
      "municip": 7405,
      "distribution": 7406,
      "browser": 7407,
      "revised": 7408,
      "afa": 7409,
      "pitch": 7410,
      "tort": 7411,
      "decade": 7412,
      "chri": 7413,
      "wides": 7414,
      "unusual": 7415,
      "blan": 7416,
      "userbox": 7417,
      "signpost": 7418,
      "outline": 7419,
      "nonnotable": 7420,
      "headings": 7421,
      "password": 7422,
      "russians": 7423,
      "conducted": 7424,
      "civilians": 7425,
      "sweden": 7426,
      "protocol": 7427,
      "caucas": 7428,
      "zealand": 7429,
      "combination": 7430,
      "kitchen": 7431,
      "bing": 7432,
      "hin": 7433,
      "och": 7434,
      "sage": 7435,
      "sack": 7436,
      "lorena": 7437,
      "ghost": 7438,
      "worried": 7439,
      "costs": 7440,
      "hawa": 7441,
      "signal": 7442,
      "versity": 7443,
      "ethics": 7444,
      "instant": 7445,
      "fools": 7446,
      "bosnia": 7447,
      "anthropo": 7448,
      "apost": 7449,
      "noun": 7450,
      "rin": 7451,
      "wick": 7452,
      "ender": 7453,
      "uss": 7454,
      "motives": 7455,
      "fications": 7456,
      "clarified": 7457,
      "constructed": 7458,
      "observed": 7459,
      "graduate": 7460,
      "bizarre": 7461,
      "orozco": 7462,
      "cine": 7463,
      "uti": 7464,
      "wah": 7465,
      "ito": 7466,
      "sustain": 7467,
      "rah": 7468,
      "gran": 7469,
      "berry": 7470,
      "namely": 7471,
      "canon": 7472,
      "brook": 7473,
      "promised": 7474,
      "answering": 7475,
      "governments": 7476,
      "computers": 7477,
      "genesis": 7478,
      "tat": 7479,
      "rif": 7480,
      "concise": 7481,
      "beach": 7482,
      "grab": 7483,
      "kenned": 7484,
      "faced": 7485,
      "tmnd": 7486,
      "updates": 7487,
      "pakistani": 7488,
      "phenomenon": 7489,
      "junior": 7490,
      "bry": 7491,
      "gig": 7492,
      "incomplete": 7493,
      "sters": 7494,
      "escape": 7495,
      "unil": 7496,
      "excus": 7497,
      "disgrace": 7498,
      "pertain": 7499,
      "coon": 7500,
      "dialogue": 7501,
      "refu": 7502,
      "disturb": 7503,
      "cuntcunt": 7504,
      "falsely": 7505,
      "medium": 7506,
      "operations": 7507,
      "achieved": 7508,
      "duty": 7509,
      "selection": 7510,
      "pronounced": 7511,
      "duplicate": 7512,
      "hisher": 7513,
      "nad": 7514,
      "ytmnd": 7515,
      "ango": 7516,
      "sigh": 7517,
      "igan": 7518,
      "assholes": 7519,
      "diver": 7520,
      "factory": 7521,
      "offend": 7522,
      "afford": 7523,
      "headline": 7524,
      "ggers": 7525,
      "introducing": 7526,
      "penissmall": 7527,
      "occasionally": 7528,
      "conscious": 7529,
      "believer": 7530,
      "gf": 7531,
      "mol": 7532,
      "phe": 7533,
      "rings": 7534,
      "lips": 7535,
      "ctor": 7536,
      "studied": 7537,
      "defines": 7538,
      "legit": 7539,
      "officers": 7540,
      "involves": 7541,
      "burden": 7542,
      "owners": 7543,
      "alike": 7544,
      "recognised": 7545,
      "sanctions": 7546,
      "britann": 7547,
      "conservatives": 7548,
      "campus": 7549,
      "hypocrite": 7550,
      "architecture": 7551,
      "fack": 7552,
      "kay": 7553,
      "lers": 7554,
      "roc": 7555,
      "wich": 7556,
      "sued": 7557,
      "raising": 7558,
      "perception": 7559,
      "spite": 7560,
      "misinformation": 7561,
      "presentation": 7562,
      "leadership": 7563,
      "surname": 7564,
      "transport": 7565,
      "breast": 7566,
      "cutting": 7567,
      "villages": 7568,
      "gained": 7569,
      "classification": 7570,
      "corruption": 7571,
      "deemed": 7572,
      "affairs": 7573,
      "cricket": 7574,
      "ocean": 7575,
      "malhotra": 7576,
      "reconsider": 7577,
      "chin": 7578,
      "disagrees": 7579,
      "inevit": 7580,
      "blast": 7581,
      "considerable": 7582,
      "sidharth": 7583,
      "sufficiently": 7584,
      "classified": 7585,
      "discography": 7586,
      "confidence": 7587,
      "ape": 7588,
      "einstein": 7589,
      "gop": 7590,
      "kne": 7591,
      "tied": 7592,
      "stink": 7593,
      "wire": 7594,
      "uncle": 7595,
      "neuro": 7596,
      "abc": 7597,
      "extend": 7598,
      "preach": 7599,
      "intu": 7600,
      "phase": 7601,
      "judging": 7602,
      "wikipedi": 7603,
      "syndr": 7604,
      "allegation": 7605,
      "vvvv": 7606,
      "pacific": 7607,
      "suspicious": 7608,
      "gamergate": 7609,
      "universities": 7610,
      "ottoman": 7611,
      "syntax": 7612,
      "atives": 7613,
      "ohi": 7614,
      "argent": 7615,
      "trac": 7616,
      "clin": 7617,
      "rightwing": 7618,
      "medie": 7619,
      "asks": 7620,
      "visited": 7621,
      "defining": 7622,
      "overly": 7623,
      "researchers": 7624,
      "handled": 7625,
      "hammer": 7626,
      "kicked": 7627,
      "kkkkkkkkkkkkkkkk": 7628,
      "surrounding": 7629,
      "soccer": 7630,
      "negoti": 7631,
      "evalu": 7632,
      "hound": 7633,
      "anni": 7634,
      "aco": 7635,
      "ello": 7636,
      "maker": 7637,
      "oldest": 7638,
      "curren": 7639,
      "jail": 7640,
      "wilson": 7641,
      "treaty": 7642,
      "ancestors": 7643,
      "slowly": 7644,
      "dynamic": 7645,
      "ales": 7646,
      "tly": 7647,
      "atal": 7648,
      "atlan": 7649,
      "devoted": 7650,
      "adap": 7651,
      "amate": 7652,
      "undid": 7653,
      "worries": 7654,
      "caution": 7655,
      "jeal": 7656,
      "cougar": 7657,
      "attle": 7658,
      "bored": 7659,
      "cycl": 7660,
      "supporter": 7661,
      "maga": 7662,
      "toronto": 7663,
      "participating": 7664,
      "breaks": 7665,
      "declare": 7666,
      "taylor": 7667,
      "pulled": 7668,
      "gentle": 7669,
      "coherent": 7670,
      "hag": 7671,
      "hash": 7672,
      "nag": 7673,
      "vary": 7674,
      "wine": 7675,
      "inity": 7676,
      "gear": 7677,
      "anton": 7678,
      "boom": 7679,
      "dishonest": 7680,
      "coal": 7681,
      "obma": 7682,
      "subpage": 7683,
      "carbon": 7684,
      "denying": 7685,
      "popularity": 7686,
      "industrial": 7687,
      "citizenship": 7688,
      "executive": 7689,
      "dit": 7690,
      "kas": 7691,
      "stin": 7692,
      "iding": 7693,
      "indu": 7694,
      "iterate": 7695,
      "diego": 7696,
      "tropical": 7697,
      "salute": 7698,
      "pushed": 7699,
      "mccain": 7700,
      "offering": 7701,
      "increased": 7702,
      "arrested": 7703,
      "eter": 7704,
      "kent": 7705,
      "plants": 7706,
      "endless": 7707,
      "bulgar": 7708,
      "compound": 7709,
      "legacy": 7710,
      "ethical": 7711,
      "remained": 7712,
      "affir": 7713,
      "sweep": 7714,
      "mathematics": 7715,
      "divided": 7716,
      "libertarian": 7717,
      "vinc": 7718,
      "alog": 7719,
      "enty": 7720,
      "convey": 7721,
      "mainten": 7722,
      "iry": 7723,
      "glor": 7724,
      "awk": 7725,
      "userspace": 7726,
      "driver": 7727,
      "wikic": 7728,
      "jersey": 7729,
      "journalists": 7730,
      "proposals": 7731,
      "privileges": 7732,
      "hurricane": 7733,
      "widespread": 7734,
      "kennedy": 7735,
      "hong": 7736,
      "uno": 7737,
      "rec": 7738,
      "revel": 7739,
      "ancy": 7740,
      "delan": 7741,
      "andro": 7742,
      "bean": 7743,
      "shap": 7744,
      "notation": 7745,
      "matthe": 7746,
      "clock": 7747,
      "afc": 7748,
      "penal": 7749,
      "resulted": 7750,
      "behave": 7751,
      "guessing": 7752,
      "insulted": 7753,
      "witnesses": 7754,
      "painting": 7755,
      "columbia": 7756,
      "navig": 7757,
      "chemistry": 7758,
      "wl": 7759,
      "persu": 7760,
      "syd": 7761,
      "borders": 7762,
      "construct": 7763,
      "battles": 7764,
      "loyal": 7765,
      "lengthy": 7766,
      "temporarily": 7767,
      "collaborative": 7768,
      "eeeeeeeeeeeeeeee": 7769,
      "discovery": 7770,
      "accessible": 7771,
      "bd": 7772,
      "mf": 7773,
      "tious": 7774,
      "orbit": 7775,
      "agues": 7776,
      "porno": 7777,
      "medal": 7778,
      "regim": 7779,
      "bron": 7780,
      "curi": 7781,
      "freebsd": 7782,
      "canvass": 7783,
      "rising": 7784,
      "funding": 7785,
      "fried": 7786,
      "avoiding": 7787,
      "targe": 7788,
      "participated": 7789,
      "honour": 7790,
      "intentional": 7791,
      "faster": 7792,
      "secure": 7793,
      "hhhhhhhhhhhhhhhh": 7794,
      "scout": 7795,
      "emperor": 7796,
      "medieval": 7797,
      "jin": 7798,
      "tile": 7799,
      "liking": 7800,
      "simon": 7801,
      "uled": 7802,
      "pler": 7803,
      "indones": 7804,
      "aug": 7805,
      "archae": 7806,
      "phant": 7807,
      "presents": 7808,
      "hamas": 7809,
      "bella": 7810,
      "converted": 7811,
      "maintenance": 7812,
      "zili": 7813,
      "inary": 7814,
      "estim": 7815,
      "ays": 7816,
      "unaware": 7817,
      "sham": 7818,
      "calen": 7819,
      "sprick": 7820,
      "correspond": 7821,
      "viewpoints": 7822,
      "alternatives": 7823,
      "implied": 7824,
      "crowd": 7825,
      "pedophile": 7826,
      "wattwattwattwatt": 7827,
      "fighter": 7828,
      "discrimination": 7829,
      "uan": 7830,
      "revi": 7831,
      "ark": 7832,
      "stro": 7833,
      "martial": 7834,
      "ribly": 7835,
      "puer": 7836,
      "yours": 7837,
      "sucking": 7838,
      "pasted": 7839,
      "italic": 7840,
      "biology": 7841,
      "nicely": 7842,
      "relationships": 7843,
      "zionist": 7844,
      "mathematical": 7845,
      "czech": 7846,
      "etymology": 7847,
      "fundamentally": 7848,
      "targeted": 7849,
      "kle": 7850,
      "reign": 7851,
      "leon": 7852,
      "assign": 7853,
      "wikilove": 7854,
      "countless": 7855,
      "glass": 7856,
      "hydro": 7857,
      "iography": 7858,
      "clarity": 7859,
      "occurs": 7860,
      "magazines": 7861,
      "arrived": 7862,
      "masters": 7863,
      "quantum": 7864,
      "syndrome": 7865,
      "spricksprick": 7866,
      "kom": 7867,
      "pad": 7868,
      "uous": 7869,
      "wwii": 7870,
      "isles": 7871,
      "plural": 7872,
      "disorder": 7873,
      "goodbye": 7874,
      "syl": 7875,
      "transcl": 7876,
      "officials": 7877,
      "boards": 7878,
      "honesty": 7879,
      "beatles": 7880,
      "activist": 7881,
      "accidentally": 7882,
      "exceptions": 7883,
      "basketball": 7884,
      "dge": 7885,
      "oreg": 7886,
      "tionary": 7887,
      "veget": 7888,
      "opponents": 7889,
      "beating": 7890,
      "epic": 7891,
      "clothes": 7892,
      "continually": 7893,
      "buff": 7894,
      "angeles": 7895,
      "fgt": 7896,
      "substantiated": 7897,
      "ministry": 7898,
      "scrut": 7899,
      "palestinians": 7900,
      "pleasant": 7901,
      "compliance": 7902,
      "michigan": 7903,
      "routine": 7904,
      "gel": 7905,
      "erased": 7906,
      "sting": 7907,
      "lift": 7908,
      "activ": 7909,
      "questioning": 7910,
      "lifetime": 7911,
      "daw": 7912,
      "trees": 7913,
      "weekly": 7914,
      "slavic": 7915,
      "deliberate": 7916,
      "virtual": 7917,
      "xxxxxxxx": 7918,
      "fascism": 7919,
      "semin": 7920,
      "isa": 7921,
      "ament": 7922,
      "pete": 7923,
      "verb": 7924,
      "vich": 7925,
      "pertin": 7926,
      "hazel": 7927,
      "dip": 7928,
      "logs": 7929,
      "breath": 7930,
      "hominem": 7931,
      "indicating": 7932,
      "cuntbag": 7933,
      "successfully": 7934,
      "catholics": 7935,
      "securityfuck": 7936,
      "shorten": 7937,
      "biblio": 7938,
      "hockey": 7939,
      "clubs": 7940,
      "ohio": 7941,
      "hm": 7942,
      "hors": 7943,
      "nin": 7944,
      "encount": 7945,
      "sean": 7946,
      "kies": 7947,
      "impartial": 7948,
      "mania": 7949,
      "ards": 7950,
      "monday": 7951,
      "ifications": 7952,
      "triple": 7953,
      "nni": 7954,
      "courts": 7955,
      "solutions": 7956,
      "aneous": 7957,
      "opera": 7958,
      "princess": 7959,
      "identifying": 7960,
      "celtic": 7961,
      "kansas": 7962,
      "goddned": 7963,
      "elaborate": 7964,
      "manifest": 7965,
      "hend": 7966,
      "wound": 7967,
      "eder": 7968,
      "ena": 7969,
      "enlight": 7970,
      "seal": 7971,
      "isp": 7972,
      "theast": 7973,
      "shed": 7974,
      "saving": 7975,
      "interaction": 7976,
      "crush": 7977,
      "applying": 7978,
      "stronger": 7979,
      "sooner": 7980,
      "developing": 7981,
      "reaching": 7982,
      "democrat": 7983,
      "environmental": 7984,
      "genuinely": 7985,
      "bj": 7986,
      "cue": 7987,
      "dread": 7988,
      "fk": 7989,
      "ience": 7990,
      "kha": 7991,
      "medit": 7992,
      "allies": 7993,
      "thick": 7994,
      "isations": 7995,
      "versus": 7996,
      "immature": 7997,
      "pleased": 7998,
      "definitive": 7999,
      "dale": 8000,
      "solar": 8001,
      "precious": 8002,
      "stays": 8003,
      "literal": 8004,
      "slap": 8005,
      "wasnt": 8006,
      "somal": 8007,
      "virginia": 8008,
      "above": 8009,
      "alumni": 8010,
      "britannica": 8011,
      "bond": 8012,
      "cers": 8013,
      "jason": 8014,
      "rt": 8015,
      "rss": 8016,
      "adher": 8017,
      "abra": 8018,
      "beit": 8019,
      "thankyou": 8020,
      "parano": 8021,
      "sale": 8022,
      "attor": 8023,
      "vocal": 8024,
      "generated": 8025,
      "evident": 8026,
      "commonwealth": 8027,
      "twenty": 8028,
      "preferences": 8029,
      "pier": 8030,
      "loyd": 8031,
      "tracks": 8032,
      "enwikipediaorgwikiusertalk": 8033,
      "institutions": 8034,
      "symbols": 8035,
      "drew": 8036,
      "compatible": 8037,
      "rous": 8038,
      "vable": 8039,
      "provision": 8040,
      "protests": 8041,
      "tof": 8042,
      "wned": 8043,
      "generate": 8044,
      "biological": 8045,
      "wins": 8046,
      "alternatively": 8047,
      "satisfied": 8048,
      "macedonians": 8049,
      "fighters": 8050,
      "prejudice": 8051,
      "brilliant": 8052,
      "jane": 8053,
      "mant": 8054,
      "tack": 8055,
      "ante": 8056,
      "allen": 8057,
      "deals": 8058,
      "peak": 8059,
      "unreasonable": 8060,
      "impressed": 8061,
      "extr": 8062,
      "havent": 8063,
      "senator": 8064,
      "waters": 8065,
      "walking": 8066,
      "containing": 8067,
      "cultures": 8068,
      "ugal": 8069,
      "summarize": 8070,
      "leftist": 8071,
      "academics": 8072,
      "flawed": 8073,
      "hra": 8074,
      "zor": 8075,
      "alpha": 8076,
      "amusing": 8077,
      "convinc": 8078,
      "neon": 8079,
      "plz": 8080,
      "userboxes": 8081,
      "vandalised": 8082,
      "functions": 8083,
      "tense": 8084,
      "producer": 8085,
      "movements": 8086,
      "collective": 8087,
      "driven": 8088,
      "extrem": 8089,
      "deserved": 8090,
      "difficulty": 8091,
      "armenians": 8092,
      "albanians": 8093,
      "temperature": 8094,
      "affiliated": 8095,
      "retrieved": 8096,
      "borrowed": 8097,
      "fli": 8098,
      "sans": 8099,
      "ture": 8100,
      "vah": 8101,
      "lewis": 8102,
      "atmo": 8103,
      "rival": 8104,
      "shu": 8105,
      "sain": 8106,
      "mari": 8107,
      "interfer": 8108,
      "sensible": 8109,
      "joint": 8110,
      "findings": 8111,
      "questioned": 8112,
      "sitush": 8113,
      "burning": 8114,
      "ffffffff": 8115,
      "awarded": 8116,
      "communications": 8117,
      "geography": 8118,
      "azerbaijan": 8119,
      "veggie": 8120,
      "kann": 8121,
      "naked": 8122,
      "rag": 8123,
      "rex": 8124,
      "recru": 8125,
      "retire": 8126,
      "itzer": 8127,
      "liest": 8128,
      "query": 8129,
      "fuckoff": 8130,
      "jection": 8131,
      "diagno": 8132,
      "fos": 8133,
      "ficial": 8134,
      "nationalistic": 8135,
      "selfpublished": 8136,
      "schedu": 8137,
      "nonetheless": 8138,
      "ranking": 8139,
      "residents": 8140,
      "tolerated": 8141,
      "keeper": 8142,
      "houses": 8143,
      "cad": 8144,
      "gap": 8145,
      "hans": 8146,
      "hating": 8147,
      "jere": 8148,
      "mall": 8149,
      "pity": 8150,
      "praise": 8151,
      "bearing": 8152,
      "youbollocks": 8153,
      "offers": 8154,
      "meanings": 8155,
      "harvard": 8156,
      "barack": 8157,
      "processes": 8158,
      "cros": 8159,
      "accel": 8160,
      "washed": 8161,
      "turkic": 8162,
      "adams": 8163,
      "divisions": 8164,
      "procedures": 8165,
      "electronic": 8166,
      "basteredbastered": 8167,
      "sovereign": 8168,
      "etiquette": 8169,
      "bah": 8170,
      "equality": 8171,
      "jg": 8172,
      "tl": 8173,
      "anus": 8174,
      "ende": 8175,
      "orum": 8176,
      "agers": 8177,
      "comput": 8178,
      "pls": 8179,
      "tape": 8180,
      "diagram": 8181,
      "crete": 8182,
      "partly": 8183,
      "boxing": 8184,
      "racists": 8185,
      "scrot": 8186,
      "johnny": 8187,
      "jaja": 8188,
      "connections": 8189,
      "punished": 8190,
      "licker": 8191,
      "colonial": 8192,
      "fartchina": 8193,
      "approximately": 8194,
      "alcohol": 8195,
      "oregon": 8196,
      "bent": 8197,
      "dash": 8198,
      "liqu": 8199,
      "nether": 8200,
      "manga": 8201,
      "derog": 8202,
      "mario": 8203,
      "ruin": 8204,
      "serial": 8205,
      "misunderstood": 8206,
      "pursue": 8207,
      "sought": 8208,
      "winner": 8209,
      "contacting": 8210,
      "advert": 8211,
      "linux": 8212,
      "ballsballs": 8213,
      "healthy": 8214,
      "immigration": 8215,
      "scrotum": 8216,
      "iest": 8217,
      "lined": 8218,
      "tas": 8219,
      "yas": 8220,
      "yah": 8221,
      "inconsistent": 8222,
      "chip": 8223,
      "lobby": 8224,
      "conversion": 8225,
      "conception": 8226,
      "sians": 8227,
      "apar": 8228,
      "exemp": 8229,
      "grasp": 8230,
      "bern": 8231,
      "subs": 8232,
      "closure": 8233,
      "valign": 8234,
      "carl": 8235,
      "communists": 8236,
      "queer": 8237,
      "experiments": 8238,
      "elizab": 8239,
      "conclude": 8240,
      "bruce": 8241,
      "blanked": 8242,
      "trained": 8243,
      "eliminate": 8244,
      "delivered": 8245,
      "dul": 8246,
      "gic": 8247,
      "hou": 8248,
      "nk": 8249,
      "uri": 8250,
      "roger": 8251,
      "veter": 8252,
      "pover": 8253,
      "abbre": 8254,
      "laure": 8255,
      "considers": 8256,
      "reliably": 8257,
      "tongue": 8258,
      "patrick": 8259,
      "grave": 8260,
      "journalism": 8261,
      "nuts": 8262,
      "suffering": 8263,
      "aaaaaaaaaaaaaaaaaaaaaaaaaaaaaaaaaaaaaaaaaaaaaaaaaaaaaaaaaaaaaaaa": 8264,
      "techniques": 8265,
      "saudi": 8266,
      "buddhist": 8267,
      "neighborhood": 8268,
      "veggietales": 8269,
      "faction": 8270,
      "yup": 8271,
      "teous": 8272,
      "deri": 8273,
      "bleach": 8274,
      "counting": 8275,
      "gnu": 8276,
      "europeans": 8277,
      "chiro": 8278,
      "concernthanks": 8279,
      "fantastic": 8280,
      "mechanism": 8281,
      "subsequently": 8282,
      "volunteers": 8283,
      "francisco": 8284,
      "revenge": 8285,
      "elizabeth": 8286,
      "fusion": 8287,
      "nab": 8288,
      "sd": 8289,
      "tum": 8290,
      "liz": 8291,
      "sile": 8292,
      "provo": 8293,
      "gol": 8294,
      "bott": 8295,
      "bogus": 8296,
      "tos": 8297,
      "mug": 8298,
      "bla": 8299,
      "partner": 8300,
      "morons": 8301,
      "autob": 8302,
      "falsi": 8303,
      "delusion": 8304,
      "recording": 8305,
      "musicians": 8306,
      "camps": 8307,
      "exclude": 8308,
      "slip": 8309,
      "dimen": 8310,
      "lifted": 8311,
      "technique": 8312,
      "clown": 8313,
      "delanoy": 8314,
      "mn": 8315,
      "rage": 8316,
      "sper": 8317,
      "vfd": 8318,
      "xd": 8319,
      "resem": 8320,
      "albert": 8321,
      "contra": 8322,
      "uto": 8323,
      "hibi": 8324,
      "trace": 8325,
      "curry": 8326,
      "ensns": 8327,
      "hardcore": 8328,
      "homes": 8329,
      "characteristics": 8330,
      "crystal": 8331,
      "maintained": 8332,
      "ironic": 8333,
      "percentage": 8334,
      "erroneous": 8335,
      "hap": 8336,
      "lunch": 8337,
      "mend": 8338,
      "yn": 8339,
      "anity": 8340,
      "adol": 8341,
      "beings": 8342,
      "heh": 8343,
      "cave": 8344,
      "readable": 8345,
      "marry": 8346,
      "genius": 8347,
      "ensity": 8348,
      "probability": 8349,
      "struggle": 8350,
      "seemingly": 8351,
      "client": 8352,
      "hotel": 8353,
      "investigations": 8354,
      "archiving": 8355,
      "modific": 8356,
      "survive": 8357,
      "govt": 8358,
      "employees": 8359,
      "lation": 8360,
      "newly": 8361,
      "entials": 8362,
      "lane": 8363,
      "smh": 8364,
      "discusses": 8365,
      "filling": 8366,
      "corporation": 8367,
      "flex": 8368,
      "billy": 8369,
      "occasions": 8370,
      "bombing": 8371,
      "ancestryfuckoff": 8372,
      "cookie": 8373,
      "parallel": 8374,
      "bble": 8375,
      "daddy": 8376,
      "iti": 8377,
      "rhy": 8378,
      "slang": 8379,
      "tists": 8380,
      "seat": 8381,
      "pec": 8382,
      "nobel": 8383,
      "wayne": 8384,
      "jeho": 8385,
      "clever": 8386,
      "believing": 8387,
      "explor": 8388,
      "expires": 8389,
      "analogy": 8390,
      "passes": 8391,
      "untagged": 8392,
      "destroying": 8393,
      "threads": 8394,
      "masturb": 8395,
      "restrictions": 8396,
      "currency": 8397,
      "ancestryfuckoffjewish": 8398,
      "caps": 8399,
      "indefinite": 8400,
      "adults": 8401,
      "poison": 8402,
      "beast": 8403,
      "coincidence": 8404,
      "spu": 8405,
      "puzz": 8406,
      "butter": 8407,
      "offence": 8408,
      "gled": 8409,
      "memorial": 8410,
      "relates": 8411,
      "trevor": 8412,
      "maintaining": 8413,
      "pseudoscience": 8414,
      "victoria": 8415,
      "partially": 8416,
      "awkward": 8417,
      "derogatory": 8418,
      "eats": 8419,
      "nap": 8420,
      "wright": 8421,
      "tibet": 8422,
      "thug": 8423,
      "liars": 8424,
      "aba": 8425,
      "meme": 8426,
      "mob": 8427,
      "fork": 8428,
      "resort": 8429,
      "toi": 8430,
      "gies": 8431,
      "diversity": 8432,
      "needing": 8433,
      "tested": 8434,
      "prompt": 8435,
      "loaded": 8436,
      "researched": 8437,
      "debates": 8438,
      "disagreements": 8439,
      "nonex": 8440,
      "roads": 8441,
      "ratings": 8442,
      "defeat": 8443,
      "restricted": 8444,
      "uniform": 8445,
      "pertinent": 8446,
      "airl": 8447,
      "nbc": 8448,
      "tiger": 8449,
      "asi": 8450,
      "asy": 8451,
      "disabled": 8452,
      "guided": 8453,
      "prevail": 8454,
      "illness": 8455,
      "outdated": 8456,
      "bald": 8457,
      "histories": 8458,
      "walker": 8459,
      "roughly": 8460,
      "hypocritical": 8461,
      "cherry": 8462,
      "hunter": 8463,
      "frustrated": 8464,
      "miller": 8465,
      "clause": 8466,
      "fb": 8467,
      "kri": 8468,
      "ksh": 8469,
      "sj": 8470,
      "returning": 8471,
      "algor": 8472,
      "rix": 8473,
      "keen": 8474,
      "olas": 8475,
      "exagger": 8476,
      "talign": 8477,
      "shr": 8478,
      "bilities": 8479,
      "trim": 8480,
      "evidently": 8481,
      "mming": 8482,
      "knowledgeable": 8483,
      "pilot": 8484,
      "wtc": 8485,
      "lincol": 8486,
      "peerreviewed": 8487,
      "reminder": 8488,
      "quarter": 8489,
      "automated": 8490,
      "torture": 8491,
      "aar": 8492,
      "into": 8493,
      "ario": 8494,
      "impose": 8495,
      "fection": 8496,
      "ruining": 8497,
      "aryan": 8498,
      "thole": 8499,
      "omatic": 8500,
      "brazili": 8501,
      "bothering": 8502,
      "criminals": 8503,
      "metaph": 8504,
      "trusted": 8505,
      "notified": 8506,
      "resident": 8507,
      "inferior": 8508,
      "horses": 8509,
      "eag": 8510,
      "lac": 8511,
      "tus": 8512,
      "escal": 8513,
      "elite": 8514,
      "appoint": 8515,
      "moore": 8516,
      "attended": 8517,
      "miscell": 8518,
      "messed": 8519,
      "indef": 8520,
      "mrs": 8521,
      "confirms": 8522,
      "convenience": 8523,
      "broader": 8524,
      "cards": 8525,
      "philip": 8526,
      "tournam": 8527,
      "obsessed": 8528,
      "bradbury": 8529,
      "assembly": 8530,
      "observations": 8531,
      "doctrine": 8532,
      "pare": 8533,
      "intr": 8534,
      "relie": 8535,
      "arist": 8536,
      "admir": 8537,
      "expressing": 8538,
      "cloud": 8539,
      "divor": 8540,
      "choo": 8541,
      "stopping": 8542,
      "studying": 8543,
      "criticized": 8544,
      "programming": 8545,
      "phrasing": 8546,
      "rumors": 8547,
      "censoring": 8548,
      "congrats": 8549,
      "employee": 8550,
      "scientology": 8551,
      "amateur": 8552,
      "algorith": 8553,
      "feld": 8554,
      "pto": 8555,
      "tf": 8556,
      "vp": 8557,
      "remed": 8558,
      "itable": 8559,
      "ams": 8560,
      "terri": 8561,
      "exceed": 8562,
      "ella": 8563,
      "cole": 8564,
      "dual": 8565,
      "syrian": 8566,
      "webpage": 8567,
      "resulting": 8568,
      "germanic": 8569,
      "evange": 8570,
      "doctors": 8571,
      "dollar": 8572,
      "garden": 8573,
      "eb": 8574,
      "hye": 8575,
      "jm": 8576,
      "mouse": 8577,
      "pil": 8578,
      "depression": 8579,
      "begun": 8580,
      "disappointed": 8581,
      "obli": 8582,
      "notor": 8583,
      "subtle": 8584,
      "appy": 8585,
      "fund": 8586,
      "wishing": 8587,
      "draf": 8588,
      "annual": 8589,
      "accepting": 8590,
      "slur": 8591,
      "strikes": 8592,
      "textalign": 8593,
      "thorpe": 8594,
      "albania": 8595,
      "declaration": 8596,
      "reserve": 8597,
      "dm": 8598,
      "iac": 8599,
      "infant": 8600,
      "edia": 8601,
      "stom": 8602,
      "atar": 8603,
      "ambi": 8604,
      "exhibit": 8605,
      "inet": 8606,
      "listas": 8607,
      "inclined": 8608,
      "steel": 8609,
      "borough": 8610,
      "expired": 8611,
      "hindi": 8612,
      "nominating": 8613,
      "hahahahaha": 8614,
      "punct": 8615,
      "ooooooooo": 8616,
      "secretary": 8617,
      "harmful": 8618,
      "variation": 8619,
      "defamatory": 8620,
      "alalalalalalalalalalalalalalalal": 8621,
      "trend": 8622,
      "reread": 8623,
      "lebanon": 8624,
      "christop": 8625,
      "instruct": 8626,
      "thand": 8627,
      "assigned": 8628,
      "tedly": 8629,
      "udge": 8630,
      "nail": 8631,
      "ballz": 8632,
      "socie": 8633,
      "stolen": 8634,
      "extremist": 8635,
      "romania": 8636,
      "conventional": 8637,
      "tendency": 8638,
      "reflected": 8639,
      "grading": 8640,
      "grandfather": 8641,
      "humour": 8642,
      "dictator": 8643,
      "hmmm": 8644,
      "adequate": 8645,
      "abbrevi": 8646,
      "gad": 8647,
      "pard": 8648,
      "scare": 8649,
      "estimate": 8650,
      "ussr": 8651,
      "icts": 8652,
      "conced": 8653,
      "petition": 8654,
      "unfounded": 8655,
      "jean": 8656,
      "diam": 8657,
      "interven": 8658,
      "monten": 8659,
      "chez": 8660,
      "gency": 8661,
      "ahouse": 8662,
      "continent": 8663,
      "gaza": 8664,
      "athan": 8665,
      "buddh": 8666,
      "streets": 8667,
      "measures": 8668,
      "civilization": 8669,
      "jumping": 8670,
      "shift": 8671,
      "lonely": 8672,
      "intuitive": 8673,
      "atlantic": 8674,
      "puerto": 8675,
      "convincing": 8676,
      "oth": 8677,
      "oops": 8678,
      "repost": 8679,
      "poke": 8680,
      "poles": 8681,
      "nol": 8682,
      "ifer": 8683,
      "exha": 8684,
      "reson": 8685,
      "indis": 8686,
      "coz": 8687,
      "mayor": 8688,
      "newer": 8689,
      "earned": 8690,
      "athle": 8691,
      "losers": 8692,
      "falling": 8693,
      "treating": 8694,
      "traditions": 8695,
      "alphabe": 8696,
      "pppppppppppppppp": 8697,
      "cheatsheet": 8698,
      "mythology": 8699,
      "cure": 8700,
      "jdelanoy": 8701,
      "tap": 8702,
      "rett": 8703,
      "usal": 8704,
      "tica": 8705,
      "teeth": 8706,
      "proces": 8707,
      "abu": 8708,
      "endors": 8709,
      "putin": 8710,
      "bies": 8711,
      "originated": 8712,
      "refusing": 8713,
      "arguably": 8714,
      "bugs": 8715,
      "reporter": 8716,
      "debt": 8717,
      "hurra": 8718,
      "mosque": 8719,
      "stalker": 8720,
      "concluded": 8721,
      "sequence": 8722,
      "alliance": 8723,
      "attorney": 8724,
      "bans": 8725,
      "jess": 8726,
      "oak": 8727,
      "rv": 8728,
      "inating": 8729,
      "enthus": 8730,
      "admi": 8731,
      "roles": 8732,
      "ambass": 8733,
      "polar": 8734,
      "uninvolved": 8735,
      "uncited": 8736,
      "teahouse": 8737,
      "prov": 8738,
      "vista": 8739,
      "truck": 8740,
      "talkback": 8741,
      "anka": 8742,
      "ffin": 8743,
      "misuse": 8744,
      "agreeing": 8745,
      "refuses": 8746,
      "xxx": 8747,
      "patients": 8748,
      "predict": 8749,
      "satell": 8750,
      "privilege": 8751,
      "biblical": 8752,
      "contradictory": 8753,
      "egyptian": 8754,
      "theatre": 8755,
      "synony": 8756,
      "pashtun": 8757,
      "aqu": 8758,
      "dq": 8759,
      "kol": 8760,
      "lash": 8761,
      "vand": 8762,
      "rians": 8763,
      "concrete": 8764,
      "dissent": 8765,
      "formally": 8766,
      "aret": 8767,
      "worker": 8768,
      "dust": 8769,
      "generations": 8770,
      "approve": 8771,
      "wrongly": 8772,
      "courage": 8773,
      "magne": 8774,
      "dropping": 8775,
      "shithole": 8776,
      "meetup": 8777,
      "tends": 8778,
      "peaceful": 8779,
      "franch": 8780,
      "applications": 8781,
      "hinduism": 8782,
      "wisdom": 8783,
      "spaces": 8784,
      "gwen": 8785,
      "circles": 8786,
      "fuckfuckfuckfuckfuckfuckfuckfuckfuckfuckfuckfuckfuckfuckfuckfuck": 8787,
      "presume": 8788,
      "buddhism": 8789,
      "yada": 8790,
      "titive": 8791,
      "thri": 8792,
      "vet": 8793,
      "pear": 8794,
      "oph": 8795,
      "unfree": 8796,
      "mood": 8797,
      "plaus": 8798,
      "dismissed": 8799,
      "shine": 8800,
      "clutter": 8801,
      "anyhow": 8802,
      "newton": 8803,
      "entities": 8804,
      "misogy": 8805,
      "frag": 8806,
      "copyedit": 8807,
      "harmon": 8808,
      "merry": 8809,
      "norman": 8810,
      "producing": 8811,
      "versary": 8812,
      "createdtook": 8813,
      "cali": 8814,
      "filthy": 8815,
      "lovely": 8816,
      "judges": 8817,
      "convenient": 8818,
      "turkeyfuck": 8819,
      "maximum": 8820,
      "philosophical": 8821,
      "equipment": 8822,
      "jealous": 8823,
      "calendar": 8824,
      "crib": 8825,
      "vc": 8826,
      "vital": 8827,
      "dean": 8828,
      "roo": 8829,
      "noon": 8830,
      "beaut": 8831,
      "irrit": 8832,
      "indirect": 8833,
      "jet": 8834,
      "sail": 8835,
      "mie": 8836,
      "mption": 8837,
      "differenti": 8838,
      "mighty": 8839,
      "memor": 8840,
      "populations": 8841,
      "tistic": 8842,
      "cambridge": 8843,
      "tabtab": 8844,
      "budget": 8845,
      "baseless": 8846,
      "frequency": 8847,
      "armenia": 8848,
      "stituted": 8849,
      "extension": 8850,
      "ophobia": 8851,
      "hahahah": 8852,
      "shocked": 8853,
      "lincoln": 8854,
      "aes": 8855,
      "ein": 8856,
      "nau": 8857,
      "xy": 8858,
      "ontar": 8859,
      "tians": 8860,
      "albeit": 8861,
      "arran": 8862,
      "ori": 8863,
      "asper": 8864,
      "beef": 8865,
      "hier": 8866,
      "indigen": 8867,
      "newbie": 8868,
      "mile": 8869,
      "poss": 8870,
      "warren": 8871,
      "cents": 8872,
      "aimed": 8873,
      "huura": 8874,
      "hadith": 8875,
      "raping": 8876,
      "contradiction": 8877,
      "eliminated": 8878,
      "grammatical": 8879,
      "hyehuh": 8880,
      "bind": 8881,
      "beng": 8882,
      "dil": 8883,
      "jd": 8884,
      "concur": 8885,
      "anderson": 8886,
      "abet": 8887,
      "wherever": 8888,
      "weed": 8889,
      "curse": 8890,
      "searched": 8891,
      "messing": 8892,
      "visiting": 8893,
      "decides": 8894,
      "belt": 8895,
      "organisations": 8896,
      "cells": 8897,
      "aiv": 8898,
      "punjab": 8899,
      "batman": 8900,
      "visitors": 8901,
      "frustrating": 8902,
      "fiable": 8903,
      "prohibited": 8904,
      "queries": 8905,
      "shakespe": 8906,
      "saget": 8907,
      "matthew": 8908,
      "pent": 8909,
      "disregard": 8910,
      "tale": 8911,
      "cake": 8912,
      "backs": 8913,
      "sorted": 8914,
      "glas": 8915,
      "susp": 8916,
      "withdraw": 8917,
      "kov": 8918,
      "chaos": 8919,
      "arabia": 8920,
      "sticking": 8921,
      "seasons": 8922,
      "centralist": 8923,
      "notify": 8924,
      "civilian": 8925,
      "ullmann": 8926,
      "implications": 8927,
      "freebsdgirl": 8928,
      "abraham": 8929,
      "poverty": 8930,
      "bach": 8931,
      "cp": 8932,
      "ht": 8933,
      "sque": 8934,
      "wu": 8935,
      "xlarge": 8936,
      "stack": 8937,
      "api": 8938,
      "deletedthis": 8939,
      "herald": 8940,
      "markup": 8941,
      "vania": 8942,
      "enjoyed": 8943,
      "pile": 8944,
      "nationally": 8945,
      "complained": 8946,
      "supremac": 8947,
      "extensively": 8948,
      "defeated": 8949,
      "assassination": 8950,
      "cartoon": 8951,
      "collapse": 8952,
      "subscribe": 8953,
      "xen": 8954,
      "chand": 8955,
      "loop": 8956,
      "confront": 8957,
      "noble": 8958,
      "unes": 8959,
      "theology": 8960,
      "ratio": 8961,
      "miser": 8962,
      "sysop": 8963,
      "vowel": 8964,
      "sorting": 8965,
      "osity": 8966,
      "nyc": 8967,
      "properties": 8968,
      "faggotgay": 8969,
      "disrupt": 8970,
      "expecting": 8971,
      "teachings": 8972,
      "engineer": 8973,
      "aviation": 8974,
      "drinking": 8975,
      "bbbbbbbbbbbbbbbb": 8976,
      "beauty": 8977,
      "eco": 8978,
      "fen": 8979,
      "flaws": 8980,
      "enger": 8981,
      "stam": 8982,
      "seman": 8983,
      "acious": 8984,
      "loid": 8985,
      "keith": 8986,
      "undone": 8987,
      "tero": 8988,
      "shy": 8989,
      "chances": 8990,
      "backing": 8991,
      "syno": 8992,
      "singing": 8993,
      "shitfuck": 8994,
      "fairness": 8995,
      "examine": 8996,
      "nationalists": 8997,
      "larry": 8998,
      "staying": 8999,
      "patron": 9000,
      "swango": 9001,
      "gravity": 9002,
      "smoke": 9003,
      "casualties": 9004,
      "politan": 9005,
      "abstract": 9006,
      "dump": 9007,
      "fm": 9008,
      "vacc": 9009,
      "devices": 9010,
      "suits": 9011,
      "provin": 9012,
      "shep": 9013,
      "blum": 9014,
      "mild": 9015,
      "cops": 9016,
      "struck": 9017,
      "searches": 9018,
      "captured": 9019,
      "afterwards": 9020,
      "hispanic": 9021,
      "automatic": 9022,
      "unblocking": 9023,
      "excluded": 9024,
      "investigate": 9025,
      "reminds": 9026,
      "mutual": 9027,
      "immigrants": 9028,
      "launched": 9029,
      "certific": 9030,
      "shirt": 9031,
      "disturbing": 9032,
      "netherlands": 9033,
      "suspended": 9034,
      "fate": 9035,
      "pour": 9036,
      "wad": 9037,
      "returns": 9038,
      "rober": 9039,
      "gospel": 9040,
      "impressive": 9041,
      "bog": 9042,
      "disaster": 9043,
      "manchester": 9044,
      "foo": 9045,
      "donkey": 9046,
      "psis": 9047,
      "defended": 9048,
      "mister": 9049,
      "ladies": 9050,
      "cruel": 9051,
      "hairy": 9052,
      "achievements": 9053,
      "tolerate": 9054,
      "christopher": 9055,
      "ontario": 9056,
      "hn": 9057,
      "ij": 9058,
      "lun": 9059,
      "nl": 9060,
      "rack": 9061,
      "sf": 9062,
      "vak": 9063,
      "wag": 9064,
      "xbox": 9065,
      "zim": 9066,
      "onen": 9067,
      "devi": 9068,
      "verbal": 9069,
      "thetical": 9070,
      "inty": 9071,
      "choices": 9072,
      "warfare": 9073,
      "voy": 9074,
      "singapo": 9075,
      "understandable": 9076,
      "delhi": 9077,
      "junk": 9078,
      "hanging": 9079,
      "taxes": 9080,
      "educate": 9081,
      "lithuan": 9082,
      "oli": 9083,
      "pak": 9084,
      "resign": 9085,
      "debut": 9086,
      "iced": 9087,
      "unhelpful": 9088,
      "theor": 9089,
      "trum": 9090,
      "dispar": 9091,
      "ardo": 9092,
      "deletes": 9093,
      "bral": 9094,
      "lawsuit": 9095,
      "dennis": 9096,
      "scrib": 9097,
      "appearances": 9098,
      "wald": 9099,
      "slaugh": 9100,
      "lux": 9101,
      "labels": 9102,
      "geographic": 9103,
      "celebrity": 9104,
      "fifth": 9105,
      "centraliststupid": 9106,
      "kl": 9107,
      "luna": 9108,
      "rical": 9109,
      "incredible": 9110,
      "robot": 9111,
      "loqu": 9112,
      "theo": 9113,
      "discredit": 9114,
      "blur": 9115,
      "ideo": 9116,
      "bitter": 9117,
      "morris": 9118,
      "expensive": 9119,
      "deciding": 9120,
      "purple": 9121,
      "hhh": 9122,
      "circu": 9123,
      "literary": 9124,
      "randomly": 9125,
      "initiated": 9126,
      "adopt": 9127,
      "establishment": 9128,
      "explore": 9129,
      "shopping": 9130,
      "discouraged": 9131,
      "screenshot": 9132,
      "descendants": 9133,
      "stadium": 9134,
      "schedule": 9135,
      "singapore": 9136,
      "ei": 9137,
      "khal": 9138,
      "svg": 9139,
      "inner": 9140,
      "alas": 9141,
      "accom": 9142,
      "chant": 9143,
      "upcoming": 9144,
      "preview": 9145,
      "rub": 9146,
      "essence": 9147,
      "izon": 9148,
      "hub": 9149,
      "killings": 9150,
      "researching": 9151,
      "kkk": 9152,
      "priority": 9153,
      "kurdish": 9154,
      "rankings": 9155,
      "splitting": 9156,
      "heroes": 9157,
      "dreams": 9158,
      "losses": 9159,
      "incorporate": 9160,
      "tanks": 9161,
      "indigenous": 9162,
      "aol": 9163,
      "rebut": 9164,
      "reactions": 9165,
      "thi": 9166,
      "anytime": 9167,
      "blues": 9168,
      "suppress": 9169,
      "publi": 9170,
      "reviewers": 9171,
      "funded": 9172,
      "scroll": 9173,
      "sided": 9174,
[...]
